<pad>	0
<unk>	0
<s>	0
</s>	0
ার	-0
▁ক	-1
য়	-2
▁স	-3
▁আ	-4
▁ব	-5
▁এ	-6
▁প	-7
ের	-8
্য	-9
্র	-10
▁ত	-11
▁কর	-12
ান	-13
▁ন	-14
▁হ	-15
▁ম	-16
ছে	-17
▁দ	-18
▁য	-19
্ত	-20
য়ে	-21
কে	-22
▁অ	-23
▁আম	-24
▁জ	-25
বে	-26
তে	-27
▁প্র	-28
রা	-29
িক	-30
লে	-31
র্	-32
াদ	-33
িন	-34
টি	-35
▁এক	-36
▁না	-37
টা	-38
▁করে	-39
াল	-40
▁বি	-41
▁শ	-42
▁ভ	-43
ন্	-44
▁চ	-45
▁নি	-46
▁গ	-47
ায়	-48
..	-49
াই	-50
িত	-51
াম	-52
ছি	-53
▁উ	-54
্ব	-55
্যা	-56
ড়	-57
াদের	-58
▁সম	-59
▁ফ	-60
▁যে	-61
▁এই	-62
স্	-63
▁দে	-64
ন্য	-65
▁আর	-66
তি	-67
▁থ	-68
রি	-69
্ষ	-70
▁কি	-71
▁তার	-72
▁আমি	-73
নে	-74
লো	-75
াস	-76
▁-	-77
▁এব	-78
▁ও	-79
▁এবং	-80
চ্	-81
▁তো	-82
াক	-83
▁সে	-84
রে	-85
য়া	-86
িয়ে	-87
▁করা	-88
▁ই	-89
▁যা	-90
লি	-91
নি	-92
▁সা	-93
▁খ	-94
ষ্	-95
কার	-96
াকে	-97
লা	-98
ুম	-99
দের	-100
ুন	-101
▁জন্য	-102
▁হয়ে	-103
▁কা	-104
▁বা	-105
ানে	-106
ছেন	-107
্প	-108
োন	-109
...	-110
▁তোম	-111
বি	-112
খন	-113
াত	-114
ুর	-115
▁(	-116
েকে	-117
ার্	-118
▁ধ	-119
▁রা	-120
না	-121
▁র	-122
ক্ষ	-123
জন	-124
▁আমার	-125
▁থেকে	-126
▁তা	-127
ছিল	-128
▁সং	-129
▁পার	-130
সে	-131
▁ব্য	-132
▁ছ	-133
▁আপ	-134
▁ড	-135
▁কে	-136
বা	-137
ক্ত	-138
▁অন	-139
েশ	-140
িনি	-141
▁হয়	-142
▁দেখ	-143
ভা	-144
ারা	-145
োগ	-146
▁হবে	-147
ুমি	-148
▁করতে	-149
▁পরি	-150
দ্	-151
চ্ছে	-152
স্ত	-153
ধ্য	-154
▁তুমি	-155
▁একটি	-156
নের	-157
বার	-158
থা	-159
▁ঘ	-160
য়ার	-161
্ল	-162
ন্ত	-163
▁তাদের	-164
▁পা	-165
থে	-166
▁এটা	-167
▁নে	-168
▁ট	-169
দি	-170
কা	-171
▁স্	-172
▁কোন	-173
▁হয়েছে	-174
ছু	-175
▁পর	-176
▁এর	-177
▁উপ	-178
▁জান	-179
খানে	-180
▁প্রতি	-181
▁আমরা	-182
ির	-183
▁তারা	-184
▁আমাদের	-185
▁মা	-186
দ্ধ	-187
▁সব	-188
মে	-189
▁বল	-190
গু	-191
তা	-192
টার	-193
▁সাথে	-194
িন্ত	-195
ঙ্	-196
ন্দ	-197
▁ল	-198
▁কিছু	-199
বাদ	-200
▁নিয়ে	-201
▁বিশ	-202
ীয়	-203
▁ব্যব	-204
▁'	-205
্রি	-206
ারণ	-207
টে	-208
▁দি	-209
▁আছে	-210
ডি	-211
্রে	-212
স্থ	-213
▁অব	-214
জে	-215
▁অনু	-216
▁মি	-217
র্ত	-218
▁আস	-219
ল্	-220
▁দিয়ে	-221
ন্ধ	-222
▁বলে	-223
ুই	-224
গে	-225
ষ্ট	-226
▁ব্ল	-227
▁ভা	-228
▁এখন	-229
▁করেছে	-230
গুলো	-231
▁মান	-232
মান	-233
নার	-234
▁তোমার	-235
▁কিন্ত	-236
মন	-237
▁হচ্ছে	-238
▁২	-239
ভি	-240
ওয়া	-241
▁একটা	-242
মা	-243
হার	-244
▁খু	-245
▁নির্	-246
ভাবে	-247
চিত	-248
▁বিষ	-249
্ন	-250
▁তিনি	-251
▁মু	-252
▁থাক	-253
▁।	-254
োর	-255
েয়ে	-256
▁করার	-257
ীর	-258
▁সম্প	-259
▁মধ্য	-260
▁স্ব	-261
▁প্রদ	-262
েল	-263
সি	-264
▁অনে	-265
▁কিন্তু	-266
তো	-267
ঠিক	-268
▁১	-269
কি	-270
যোগ	-271
▁যদি	-272
্ম	-273
▁আপনি	-274
▁ব্লগ	-275
ৃত	-276
ড়া	-277
াপ	-278
▁ব্যা	-279
ান্ত	-280
েষ	-281
স্ট	-282
▁ভাল	-283
▁''	-284
▁কথা	-285
ুল	-286
খে	-287
▁ছিল	-288
▁বেশ	-289
▁সময়	-290
▁নাম	-291
াজ	-292
ড়ে	-293
শন	-294
ুরু	-295
▁মধ্যে	-296
▁ছবি	-297
রণ	-298
▁ব্যবহার	-299
▁অনেক	-300
▁কাজ	-301
র্থ	-302
ান্	-303
▁লি	-304
▁"	-305
কারী	-306
▁ক্ষ	-307
ুক	-308
▁দু	-309
▁পারে	-310
▁ঠিক	-311
▁সি	-312
বো	-313
িকার	-314
▁সাম	-315
▁দা	-316
▁কো	-317
▁সু	-318
সব	-319
ানের	-320
▁করুন	-321
▁করেছেন	-322
ারে	-323
শি	-324
ক্তি	-325
ক্	-326
▁মনে	-327
▁আমাকে	-328
▁হি	-329
▁অপ	-330
রের	-331
গ্র	-332
▁বিশ্ব	-333
▁অন্য	-334
▁একজন	-335
▁বে	-336
্তা	-337
ুদ্ধ	-338
▁এখানে	-339
▁নয়	-340
রকার	-341
▁কাছে	-342
▁লে	-343
ন্ট	-344
ষ্ঠ	-345
▁(_	-346
সা	-347
▁কার	-348
▁দেশ	-349
▁%	-350
▁ফে	-351
▁জন	-352
০০	-353
ূর্	-354
▁মে	-355
মি	-356
ন্ত্র	-357
▁বিষয়	-358
▁--	-359
াত্র	-360
▁গে	-361
▁যায়	-362
চার	-363
তিক	-364
▁শু	-365
▁লা	-366
ঙ্গ	-367
ত্য	-368
▁লো	-369
▁করবে	-370
ংশ	-371
▁নেই	-372
ল্প	-373
লেন	-374
ুষ	-375
লের	-376
েত	-377
রিক	-378
▁বার	-379
▁গ্র	-380
ানি	-381
জ্	-382
▁করছে	-383
▁যখন	-384
▁তাকে	-385
▁ঘট	-386
▁বছ	-387
বর্ত	-388
জি	-389
▁আই	-390
হা	-391
্চ	-392
▁...	-393
▁বির	-394
▁করো	-395
তার	-396
িকা	-397
এর	-398
’’	-399
▁বন্ধ	-400
▁ডি	-401
িক্ষ	-402
▁ফি	-403
কাশ	-404
কের	-405
▁মানুষ	-406
ত্ত	-407
ীব	-408
▁আপনার	-409
▁নত	-410
ুক্ত	-411
ক্র	-412
▁পো	-413
ীন	-414
▁দিন	-415
▁“	-416
▁রে	-417
on	-418
ত্র	-419
▁নতুন	-420
জা	-421
▁তাঁ	-422
▁কারণ	-423
ানো	-424
▁,	-425
▁রয়ে	-426
োধ	-427
ন্ড	-428
▁তৈ	-429
▁এমন	-430
াতে	-431
চ্ছ	-432
▁এটি	-433
বল	-434
▁মাধ্য	-435
ুলে	-436
োট	-437
য়ান	-438
ীদের	-439
াইল	-440
ড়ি	-441
▁টুই	-442
ধান	-443
▁কী	-444
পর	-445
▁করেন	-446
▁খুব	-447
টির	-448
▁সরকার	-449
পি	-450
হলে	-451
বাস	-452
স্থা	-453
▁সহ	-454
▁অভি	-455
▁ধর	-456
▁স্থ	-457
ওয়ার	-458
▁ভি	-459
▁কেন	-460
▁দেখা	-461
▁প্রকাশ	-462
▁রাখ	-463
▁ভালো	-464
▁তোমাকে	-465
▁পু	-466
▁সম্	-467
▁নির্বা	-468
▁রয়েছে	-469
▁ব্যাপ	-470
য়ের	-471
▁মত	-472
▁এসে	-473
জ্ঞ	-474
▁?	-475
্যার	-476
▁শুরু	-477
▁কর্ম	-478
দেশ	-479
▁#	-480
▁তোমাদের	-481
▁চে	-482
▁চাই	-483
ডিও	-484
লাম	-485
▁উপর	-486
শ্য	-487
▁তাহলে	-488
জের	-489
▁@	-490
▁সক	-491
▁অংশ	-492
▁যারা	-493
▁করি	-494
সের	-495
▁দ্ব	-496
▁হিসে	-497
▁আল	-498
▁আগে	-499
্রু	-500
▁গু	-501
▁শুধ	-502
ti	-503
ূল	-504
▁প্রদর্	-505
ওয়	-506
চে	-507
▁ব্লগার	-508
▁চাল	-509
▁লেখ	-510
সম	-511
▁শি	-512
▁হতে	-513
▁বু	-514
▁হিসেবে	-515
ব্য	-516
▁২০	-517
▁পে	-518
▁তাই	-519
্ড	-520
▁শেষ	-521
স্ক	-522
▁সেই	-523
ষণ	-524
ানা	-525
।’’	-526
▁টা	-527
িন্ন	-528
▁হ্যা	-529
▁তোমরা	-530
▁পর্য	-531
▁মো	-532
▁নাগ	-533
▁সম্পর্	-534
▁যোগ	-535
দিন	-536
গত	-537
ষ্ট্র	-538
য়ো	-539
▁কেউ	-540
▁জীব	-541
্দ	-542
র্ম	-543
▁প্রদান	-544
me	-545
▁লোক	-546
▁আরো	-547
▁তৈরি	-548
▁বাস	-549
ক্ষা	-550
স্থিত	-551
▁এল	-552
ছিলাম	-553
▁নাগরিক	-554
▁তবে	-555
▁যাবে	-556
ফি	-557
গ্রহ	-558
▁বছর	-559
ান্ড	-560
্যাল	-561
▁ধরে	-562
▁আপন	-563
▁!	-564
িনা	-565
▁প্রথ	-566
▁জি	-567
▁গেছে	-568
ম্ব	-569
▁ইউ	-570
ভব	-571
্রা	-572
▁স্বা	-573
▁আজ	-574
▁চল	-575
▁যাচ্ছে	-576
▁নিশ	-577
▁পাঠ	-578
▁মাধ্যমে	-579
্রিয়	-580
ূর্ণ	-581
▁আশ	-582
an	-583
▁.	-584
ুদ্ধে	-585
▁চি	-586
▁তখন	-587
টের	-588
▁ভিডিও	-589
য্য	-590
▁শহ	-591
বেন	-592
থ্য	-593
▁অনুস	-594
াইন	-595
▁থাকে	-596
▁ছা	-597
▁রি	-598
ল্লা	-599
োভ	-600
▁উদ	-601
▁বো	-602
লার	-603
▁n	-604
▁অথ	-605
▁সংবাদ	-606
▁গো	-607
হায্য	-608
খ্যা	-609
ত্যা	-610
পে	-611
ড়িয়ে	-612
ধারণ	-613
tion	-614
▁সাহায্য	-615
▁সত্য	-616
▁অধ	-617
▁চা	-618
বেশ	-619
ীতি	-620
▁কম	-621
ক্ষণ	-622
ষ্টা	-623
▁পরিবর্ত	-624
▁ছে	-625
ষ্টি	-626
▁পি	-627
▁কোনো	-628
ডে	-629
ভাব	-630
চ্ছি	-631
▁পুর	-632
▁তুলে	-633
▁যার	-634
▁২০১	-635
▁গত	-636
▁বার্তা	-637
▁গা	-638
্যান	-639
▁কয়ে	-640
ল্লাহ	-641
▁তথ্য	-642
▁লিখে	-643
▁বিরুদ্ধে	-644
ত্ব	-645
ছিলেন	-646
▁দেখে	-647
▁বিশেষ	-648
▁ভাবে	-649
ডার	-650
▁ওয়ে	-651
▁কয়েক	-652
াকা	-653
▁প্রদর্শন	-654
▁নির্বাচ	-655
▁পরে	-656
▁অথবা	-657
▁প্রথম	-658
▁t	-659
েক	-660
▁অবস্থ	-661
▁আগ	-662
▁যেতে	-663
হি	-664
▁প্রশ	-665
▁সম্পর্কে	-666
প্র	-667
ন্টার	-668
চ্চ	-669
থায়	-670
ৈতিক	-671
▁দেখতে	-672
▁সমর্থ	-673
▁পড়ে	-674
থি	-675
▁ঐ	-676
▁আলো	-677
▁বিভ	-678
▁বিষয়ে	-679
▁টি	-680
▁ফো	-681
▁বড়	-682
মাণ	-683
in	-684
▁গিয়ে	-685
▁সেখানে	-686
▁আবার	-687
ালের	-688
▁হো	-689
েই	-690
▁স্থান	-691
▁দিকে	-692
ال	-693
চনা	-694
র্ব	-695
▁দিতে	-696
ারি	-697
▁জা	-698
দ্র	-699
▁রাজন	-700
▁ক্ষেত	-701
▁পর্যন্ত	-702
লিশ	-703
▁তাঁর	-704
▁ফাইল	-705
▁বুঝ	-706
ঞ্চ	-707
▁ভাষ	-708
▁প্রক	-709
▁আহ	-710
ানোর	-711
▁আন	-712
ৃষ্টি	-713
ঞ্	-714
েহ	-715
▁সবাই	-716
প্ত	-717
্যু	-718
▁সমস	-719
▁শুধু	-720
▁টুইটার	-721
মার	-722
▁দল	-723
য়োজন	-724
▁যেখানে	-725
▁৩	-726
▁বের	-727
▁হল	-728
▁পাল	-729
▁মতো	-730
▁মাস	-731
ন্ন	-732
াতা	-733
োর্	-734
▁বিশ্বাস	-735
▁খা	-736
▁লাগ	-737
▁পারি	-738
▁পড়	-739
▁ঘটনা	-740
▁হা	-741
▁সেটা	-742
ার্থ	-743
▁আব	-744
▁জে	-745
▁পেয়ে	-746
▁সম্ভব	-747
াকি	-748
▁রাষ্ট্র	-749
▁মৃত	-750
er	-751
▁কখন	-752
ারী	-753
▁উৎ	-754
▁জন্যে	-755
কম	-756
▁করছি	-757
▁অবশ্য	-758
ame	-759
টু	-760
্যাম	-761
▁উল্	-762
▁উত্ত	-763
ক্স	-764
্রম	-765
▁উই	-766
ার্ক	-767
রো	-768
ণ্ড	-769
ম্প	-770
▁যাও	-771
▁গ্রহ	-772
রী	-773
▁খে	-774
বী	-775
▁অ্যা	-776
▁বলতে	-777
▁রাজ	-778
▁পুলিশ	-779
ীত	-780
▁চলে	-781
আর	-782
স্ব	-783
াইট	-784
▁মূল	-785
ছো	-786
র্ক	-787
▁একই	-788
ৃতি	-789
▁পাওয়া	-790
▁ভে	-791
▁প্রধান	-792
োল	-793
▁আমের	-794
প্	-795
▁হলে	-796
▁দিয়েছে	-797
ঁচ	-798
▁বৈ	-799
ার্ড	-800
ন্স	-801
▁চেষ্টা	-802
▁ফেল	-803
▁শাস	-804
াক্ষ	-805
▁আফ	-806
হিন	-807
▁স্ক	-808
▁ধরনের	-809
▁সম্প্র	-810
▁মিশ	-811
▁ব্যক্তি	-812
ল্লাহ্	-813
▁ইর	-814
▁আইন	-815
▁দাও	-816
▁পারবে	-817
▁প্রায়	-818
▁দুই	-819
▁বিক্ষ	-820
টো	-821
▁দেয়	-822
▁বর্ত	-823
পন	-824
জার	-825
ক্ষে	-826
ণের	-827
▁অর্থ	-828
▁উদ্	-829
▁বিপ	-830
▁চেয়ে	-831
▁তাল	-832
▁করেছি	-833
▁দেয়া	-834
▁খো	-835
▁বেশি	-836
▁নিরা	-837
▁বিক্ষোভ	-838
গা	-839
▁টে	-840
▁পোস্ট	-841
▁অনুষ্ঠ	-842
▁বিভিন্ন	-843
েরে	-844
it	-845
▁প্রে	-846
ংস	-847
ইন	-848
মের	-849
বর	-850
▁খুঁ	-851
▁ক্ষেত্রে	-852
▁সার্	-853
ভার	-854
▁কারণে	-855
হে	-856
▁জানি	-857
▁নিয়	-858
র্জ	-859
▁ডে	-860
রু	-861
▁বাই	-862
ভু	-863
ঙ্গে	-864
▁বলা	-865
ংক	-866
দন	-867
্স	-868
ায়ী	-869
▁স্প	-870
স্তু	-871
▁ব্যবহারকারী	-872
▁ال	-873
▁যেন	-874
▁চিন্ত	-875
▁ঝ	-876
▁মাল	-877
▁জানা	-878
▁নিরাপ	-879
al	-880
es	-881
▁গুরু	-882
▁প্রচ	-883
▁ঘো	-884
▁লেখা	-885
▁পরিবর্তন	-886
লেখ	-887
▁তারি	-888
্তি	-889
▁সমস্ত	-890
▁কোথায়	-891
▁পরিচ	-892
▁বলেছেন	-893
দা	-894
▁বর্	-895
▁ফেসব	-896
▁দ্বারা	-897
▁জীবন	-898
▁নামক	-899
▁জায়	-900
▁ফোল্	-901
▁ফিরে	-902
ীরা	-903
▁হাম	-904
ন্দেহ	-905
▁নিজের	-906
▁পুন	-907
ঙ্ক	-908
তের	-909
▁পৃ	-910
পূর্ণ	-911
নো	-912
▁শিক্ষ	-913
▁জানিয়ে	-914
▁ভার	-915
▁আসলে	-916
ান্য	-917
▁ব্যাপারে	-918
▁ওয়েব	-919
▁সকল	-920
ভাগ	-921
▁আল্লাহ্	-922
▁বিষয়টি	-923
দায়	-924
▁ছাড়া	-925
ীল	-926
▁ইন্টার	-927
▁মাঝ	-928
▁নিজে	-929
ভে	-930
ুপ	-931
াব	-932
▁উপরে	-933
▁সমস্যা	-934
▁বন্ধু	-935
্যান্ড	-936
▁উল্লেখ	-937
▁হয়েছিল	-938
্লো	-939
▁গ্রে	-940
▁যুক্ত	-941
চি	-942
▁সাং	-943
▁প্রতিবাদ	-944
▁a	-945
ধীন	-946
▁অবশ্যই	-947
▁অনুম	-948
▁ধর্ম	-949
▁গ্রহণ	-950
্চিত	-951
▁৫	-952
▁প্	-953
▁হার	-954
▁যেমন	-955
▁রাস্ত	-956
▁বলো	-957
বর্তী	-958
চেয়ে	-959
ইল	-960
পা	-961
▁সালে	-962
▁কিভাবে	-963
▁ওহ	-964
খিত	-965
তাম	-966
▁উঠ	-967
▁করছেন	-968
ানী	-969
▁থাকবে	-970
ফল	-971
ন্যবাদ	-972
▁ফোল্ডার	-973
▁ক্যা	-974
▁মেয়ে	-975
▁নির্বাচন	-976
রাধ	-977
▁প্রচার	-978
াদা	-979
▁বেশী	-980
▁সৌ	-981
▁মার	-982
ন্তব্য	-983
▁দেশের	-984
▁সাধারণ	-985
▁ধন্যবাদ	-986
▁কু	-987
▁দুর্	-988
ন্ম	-989
ালি	-990
ালো	-991
▁আক্র	-992
খান	-993
▁পারেন	-994
▁ভয়ে	-995
চ্ছা	-996
▁ফা	-997
ীর্	-998
▁গণ	-999
▁স্ট	-1000
▁যুদ্ধ	-1001
▁গুরুত্ব	-1002
শু	-1003
সং	-1004
▁নিজ	-1005
▁ভয়	-1006
▁স্যার	-1007
পতি	-1008
শ্ব	-1009
▁নিশ্চিত	-1010
▁লক্ষ	-1011
হাস	-1012
▁২০০	-1013
দে	-1014
▁হাজ	-1015
▁সবচেয়ে	-1016
▁ভূ	-1017
▁রাজনৈতিক	-1018
এস	-1019
▁কেবল	-1020
▁ফেলে	-1021
বাল	-1022
প্তা	-1023
▁এখনো	-1024
েরা	-1025
▁টুইট	-1026
▁পূর্	-1027
ar	-1028
▁শুন	-1029
▁আপনাকে	-1030
▁দেওয়া	-1031
ার্ট	-1032
রিয়ে	-1033
▁প্রা	-1034
বান	-1035
য়ন	-1036
▁ম্যা	-1037
কো	-1038
▁মানে	-1039
হ্ন	-1040
যুক্ত	-1041
ed	-1042
▁পছ	-1043
াদেশ	-1044
ুক্তি	-1045
্রিয়া	-1046
স্য	-1047
▁অন্ত	-1048
▁একটু	-1049
▁বৃ	-1050
ধা	-1051
▁হে	-1052
▁ইন	-1053
▁পরিচিত	-1054
▁প্রয়োজন	-1055
ুট	-1056
▁৪	-1057
ামী	-1058
▁জিনি	-1059
ক্ট	-1060
▁মাঝে	-1061
পোর্	-1062
▁দরকার	-1063
ালা	-1064
▁অর্	-1065
▁আশা	-1066
▁স্বাধীন	-1067
▁তিন	-1068
▁ভিত	-1069
▁বাবা	-1070
ক্ষি	-1071
▁মন্তব্য	-1072
▁সো	-1073
নায়	-1074
▁তারপর	-1075
▁মাত্র	-1076
্যক	-1077
ামে	-1078
▁দো	-1079
▁সত্যি	-1080
▁ভাই	-1081
র্শ	-1082
▁অনল	-1083
▁ব্যর্থ	-1084
ন্ধে	-1085
▁ছোট	-1086
▁কখনো	-1087
আম	-1088
▁সামনে	-1089
la	-1090
বিদ	-1091
▁এস	-1092
চিত্র	-1093
▁জনগ	-1094
▁দাঁ	-1095
▁সংর	-1096
▁যায়নি	-1097
▁শব	-1098
ছিলো	-1099
ডিয়া	-1100
ন্ত্রণ	-1101
▁ঢ	-1102
▁দূ	-1103
দিকে	-1104
▁কিনা	-1105
▁সর্ব	-1106
▁ওকে	-1107
ৎকার	-1108
▁কাছ	-1109
▁সপ্তা	-1110
টিতে	-1111
▁মুখ	-1112
▁ব্যবস্থা	-1113
েরি	-1114
▁কন	-1115
▁ক্র	-1116
ঘাত	-1117
▁পরী	-1118
▁ব্যাপার	-1119
▁হলো	-1120
চ্ছেন	-1121
▁হ্যাঁ	-1122
আই	-1123
্যের	-1124
ro	-1125
বাদিক	-1126
▁হয়নি	-1127
▁পরিবার	-1128
▁আদ	-1129
▁এত	-1130
▁হাস	-1131
ষ্কার	-1132
গুলোর	-1133
▁রেখে	-1134
▁স্থানীয়	-1135
হিনী	-1136
▁থাম	-1137
▁শান্ত	-1138
ধার	-1139
▁লাই	-1140
▁যদিও	-1141
▁কাজে	-1142
▁সিরি	-1143
▁সদ	-1144
ারণা	-1145
▁হাত	-1146
▁গ্লো	-1147
▁সরকারের	-1148
▁জানে	-1149
▁পছন্দ	-1150
্যে	-1151
টিকে	-1152
▁বছরের	-1153
▁সাংবাদিক	-1154
ুরি	-1155
▁বাং	-1156
হু	-1157
▁s	-1158
▁বান	-1159
▁মারা	-1160
▁জাত	-1161
▁ভুল	-1162
▁বিচার	-1163
▁অভিযোগ	-1164
ভূ	-1165
স্টে	-1166
▁পুরো	-1167
▁থাকা	-1168
▁প্রতিষ্ঠ	-1169
সার	-1170
▁দুঃ	-1171
▁চায়	-1172
▁ইন্টারনে	-1173
েশন	-1174
▁চিহ্ন	-1175
▁এন	-1176
▁আফ্র	-1177
▁অধিকার	-1178
▁চিন্তা	-1179
াহ	-1180
ঞ্জ	-1181
ারাপ	-1182
▁কত	-1183
▁একে	-1184
▁ঘটে	-1185
▁ফেসবুক	-1186
▁ওয়	-1187
▁চান	-1188
▁অবস্থান	-1189
▁ক্ষম	-1190
▁গ্লোবাল	-1191
াক্ত	-1192
▁ভাব	-1193
▁সাই	-1194
▁আট	-1195
▁স্ম	-1196
▁সারা	-1197
▁লিখেছেন	-1198
▁রো	-1199
▁নিশ্চ	-1200
শে	-1201
গার	-1202
▁ফলে	-1203
স্কার	-1204
▁আরও	-1205
▁অপরাধ	-1206
বাহ	-1207
▁খারাপ	-1208
▁আত	-1209
▁ইস	-1210
▁:	-1211
িনে	-1212
কদের	-1213
▁বিদ	-1214
▁টাকা	-1215
োনা	-1216
▁জু	-1217
▁উচিত	-1218
▁করবেন	-1219
▁সাক্ষ	-1220
▁বিরোধ	-1221
মু	-1222
▁সমর্থন	-1223
ন্দর	-1224
▁উদ্দেশ	-1225
শিয়া	-1226
্বে	-1227
▁হওয়া	-1228
▁জাতীয়	-1229
▁যাওয়া	-1230
▁তুই	-1231
▁এসেছে	-1232
▁প্রশ্ন	-1233
▁সৃষ্টি	-1234
িত্ব	-1235
্যাগ	-1236
▁ব্র	-1237
স্থিতি	-1238
ষণা	-1239
িতা	-1240
▁করব	-1241
▁কর্ত	-1242
▁হাজার	-1243
▁ভয়েসে	-1244
▁হওয়ার	-1245
▁সংরক্ষণ	-1246
ঃস	-1247
াজিক	-1248
▁মুছে	-1249
▁d	-1250
তির	-1251
▁নিষ	-1252
শীল	-1253
▁চো	-1254
▁১৯	-1255
▁সংখ্যা	-1256
াপ্ত	-1257
▁যাতে	-1258
▁নামে	-1259
▁p	-1260
▁চী	-1261
▁সমা	-1262
▁ছেলে	-1263
শিয়ার	-1264
▁সঙ্গে	-1265
▁আন্ত	-1266
▁নারী	-1267
াকিস্ত	-1268
ম্বর	-1269
িন্দ	-1270
▁নিতে	-1271
▁তালিকা	-1272
পের	-1273
র্ড	-1274
▁সর	-1275
▁শব্দ	-1276
▁প্রতিক	-1277
▁নিশ্চয়	-1278
▁অন্যান্য	-1279
▁ফোন	-1280
▁এলাক	-1281
▁পৃথি	-1282
▁সময়ে	-1283
▁তারিখে	-1284
▁আরেক	-1285
▁প্রত	-1286
ুমাত্র	-1287
▁জানতে	-1288
কিছু	-1289
িত্র	-1290
▁অপে	-1291
াতিক	-1292
▁খুঁজে	-1293
▁সামাজিক	-1294
▁1	-1295
কাল	-1296
▁বিক	-1297
▁থাকতে	-1298
বাধ	-1299
▁বয়	-1300
▁কারন	-1301
ot	-1302
্রুত	-1303
▁করবো	-1304
▁নাকি	-1305
ঃসন্দেহ	-1306
আমি	-1307
বের	-1308
▁S	-1309
▁শে	-1310
লাদেশ	-1311
ড়াও	-1312
▁নেট	-1313
▁শক্তি	-1314
op	-1315
▁আসে	-1316
▁হাতে	-1317
en	-1318
ফে	-1319
▁C	-1320
▁জো	-1321
▁শহর	-1322
▁সিদ্ধ	-1323
or	-1324
▁মানুষের	-1325
▁♪	-1326
মিক	-1327
▁মিনি	-1328
▁দ্রুত	-1329
▁সালের	-1330
▁প্রকল্প	-1331
াযোগ	-1332
▁ইতি	-1333
▁পান	-1334
িকি	-1335
▁যত	-1336
▁সুযোগ	-1337
ামা	-1338
▁পৌ	-1339
▁বাড়	-1340
▁উত্তর	-1341
▁কিছুই	-1342
▁পাকিস্ত	-1343
▁বর্তমান	-1344
)।	-1345
▁ওর	-1346
ত্তা	-1347
পোর্ট	-1348
▁ছেড়ে	-1349
▁বাড়ি	-1350
▁ব্লগে	-1351
ণী	-1352
তম	-1353
মাত্র	-1354
▁প্রবেশ	-1355
তোম	-1356
▁পদ	-1357
▁বাংলাদেশ	-1358
▁সিদ্ধান্ত	-1359
▁রাষ্ট্রপতি	-1360
▁৬	-1361
জন্য	-1362
তর্ক	-1363
▁পার্	-1364
▁প্রভু	-1365
▁সংস্ক	-1366
সী	-1367
▁নির্বাচিত	-1368
▁আর্	-1369
▁এসব	-1370
▁আন্দ	-1371
▁সদস্য	-1372
এন	-1373
▁M	-1374
▁পথ	-1375
▁চার	-1376
▁name	-1377
ড়াই	-1378
্যাক	-1379
▁যিনি	-1380
ran	-1381
পাত	-1382
▁সী	-1383
▁লিখ	-1384
তন	-1385
০০০	-1386
▁হিসা	-1387
▁এতে	-1388
▁প্রের	-1389
রাষ্ট্র	-1390
ীক	-1391
▁ওই	-1392
▁মহ	-1393
▁আলোচনা	-1394
ou	-1395
▁অফ	-1396
▁সার	-1397
▁বুঝতে	-1398
ন্ত্রী	-1399
▁বিশ্বের	-1400
▁সক্রিয়	-1401
▁শুধুমাত্র	-1402
ছা	-1403
্ট	-1404
▁রু	-1405
জনক	-1406
ন্দ্র	-1407
▁মার্	-1408
▁সম্পাদ	-1409
উনি	-1410
▁সূ	-1411
সিডে	-1412
▁যান	-1413
▁ওয়া	-1414
▁গাড়ি	-1415
গো	-1416
▁পরিণ	-1417
র্জাতিক	-1418
▁কর্তৃ	-1419
▁E	-1420
▁যাই	-1421
▁যাদের	-1422
মিত	-1423
▁ভোট	-1424
▁বলছে	-1425
▁তে	-1426
বেদন	-1427
▁বাইরে	-1428
▁নিউ	-1429
▁বললেন	-1430
িকান	-1431
▁অনেকে	-1432
▁দৃ	-1433
ুরুষ	-1434
▁নিজেদের	-1435
ol	-1436
াও	-1437
শেষ	-1438
ালী	-1439
▁ফ্ল	-1440
স্টার	-1441
্যান্	-1442
▁ঘোষণা	-1443
▁আন্তর্জাতিক	-1444
▁সম্ব	-1445
ূহ	-1446
রায়	-1447
▁উন্ন	-1448
▁ঘটনার	-1449
▁হত্যা	-1450
▁‘	-1451
▁নাই	-1452
▁এমনকি	-1453
▁পরিচাল	-1454
▁যোগাযোগ	-1455
▁খবর	-1456
▁মৃত্যু	-1457
▁অনুসন্ধ	-1458
▁চিহ্নিত	-1459
▁G	-1460
রাই	-1461
▁ডা	-1462
▁ক্ল	-1463
▁সংক্র	-1464
কারীদের	-1465
▁ঈ	-1466
দার	-1467
▁বদ	-1468
▁কাউ	-1469
▁খাবার	-1470
▁জিনিস	-1471
সিডেন্ট	-1472
▁৭	-1473
হৃত	-1474
▁ধ্ব	-1475
মানে	-1476
▁বলছি	-1477
▁বর্ণ	-1478
▁দিয়েছেন	-1479
▁ওটা	-1480
▁স্ত	-1481
▁ফিলি	-1482
▁ভাষায়	-1483
▁সুন্দর	-1484
হত	-1485
▁দর	-1486
▁কেমন	-1487
▁হয়তো	-1488
ity	-1489
▁যৌ	-1490
▁ট্র	-1491
▁বিন	-1492
▁পরীক্ষা	-1493
▁অভ	-1494
rans	-1495
▁দক্ষি	-1496
্ঞ	-1497
য়াল	-1498
▁ভাগ	-1499
▁খেলা	-1500
▁trans	-1501
▁দুঃখিত	-1502
এই	-1503
সু	-1504
ীকার	-1505
▁রাখা	-1506
option	-1507
▁অংশগ্রহ	-1508
▁কল	-1509
▁একা	-1510
▁করেছিল	-1511
▁কঠ	-1512
▁ফাঁ	-1513
▁প্রেসিডেন্ট	-1514
্যানে	-1515
▁শিশু	-1516
▁মুক্ত	-1517
▁م	-1518
ছিলে	-1519
▁ওয়েবস	-1520
শ্চ	-1521
▁ক্যাম	-1522
▁transla	-1523
রণের	-1524
যোগ্য	-1525
▁জিজ্ঞ	-1526
▁ব্যবহৃত	-1527
▁বস	-1528
উন্ট	-1529
▁অঞ্চ	-1530
▁আচ্ছা	-1531
▁ছাত্র	-1532
▁আন্দোল	-1533
▁ভয়েসেস	-1534
ly	-1535
▁বলেন	-1536
▁বন্দ	-1537
▁বললে	-1538
▁বাচ্চ	-1539
▁ইন্টারনেট	-1540
▁প্রভাব	-1541
▁সম্প্রদায়	-1542
he	-1543
ষ্য	-1544
▁কারা	-1545
▁গল্প	-1546
▁পানি	-1547
▁নামের	-1548
▁প্রত্য	-1549
তায়	-1550
▁মহি	-1551
▁বিরোধী	-1552
optional	-1553
▁প্রদর্শ	-1554
▁সংক্রান্ত	-1555
▁গুরুত্বপূর্ণ	-1556
টাই	-1557
▁ছু	-1558
▁জাপ	-1559
▁ইয়ে	-1560
▁খুবই	-1561
্যাস	-1562
▁হিসাবে	-1563
চের	-1564
পত্র	-1565
ab	-1566
▁দেশে	-1567
▁শিকার	-1568
▁দক্ষিণ	-1569
▁A	-1570
বাসী	-1571
▁আছি	-1572
▁করলে	-1573
▁শহরের	-1574
Name	-1575
য়োগ	-1576
▁এটাই	-1577
▁জানো	-1578
▁বিস্	-1579
is	-1580
ূপ	-1581
ফতার	-1582
▁দলের	-1583
▁দাবি	-1584
▁অবস্থা	-1585
জু	-1586
সূ	-1587
▁[	-1588
▁বই	-1589
াসের	-1590
্প্র	-1591
▁খেল	-1592
▁আক্রম	-1593
▁ছড়িয়ে	-1594
▁মিডিয়া	-1595
▁নিরাপত্তা	-1596
মো	-1597
কেট	-1598
▁উচ্চ	-1599
▁তৈরী	-1600
িয়েছে	-1601
এম	-1602
▁ত্রু	-1603
▁পরিণত	-1604
▁পরবর্তী	-1605
▁যাওয়ার	-1606
ধি	-1607
্লা	-1608
বন্ধ	-1609
বাদী	-1610
▁ক্ষতি	-1611
▁বাস্ত	-1612
▁I	-1613
City	-1614
্যাট	-1615
▁ভিন্ন	-1616
বাধিকার	-1617
▁নিঃসন্দেহ	-1618
গল	-1619
▁৮	-1620
ুকে	-1621
▁বোঝ	-1622
▁শির	-1623
▁সম্বন্ধে	-1624
▁মনো	-1625
▁সংগ	-1626
▁আসছে	-1627
▁মানবাধিকার	-1628
▁و	-1629
▁অত	-1630
পক্ষ	-1631
সময়	-1632
▁বাহ	-1633
▁নেয়া	-1634
হীন	-1635
▁১০	-1636
▁তুল	-1637
▁নির	-1638
▁মাই	-1639
▁জন্ম	-1640
▁ভারত	-1641
▁পূর্ব	-1642
▁অপেক্ষা	-1643
▁ব্যাখ্যা	-1644
▁বাদ	-1645
ছনে	-1646
হিত	-1647
াপন	-1648
িতীয়	-1649
গুলোকে	-1650
▁কাজের	-1651
▁ছিলেন	-1652
▁জায়গা	-1653
▁দেশটির	-1654
▁মাধ্যম	-1655
▁শান্তি	-1656
▁সপ্তাহ	-1657
ম্	-1658
▁P	-1659
নিক	-1660
ামের	-1661
গুলোতে	-1662
▁সার্ভার	-1663
▁পরিষ্কার	-1664
▁মর	-1665
নীতি	-1666
▁গ্রেফতার	-1667
▁নাগরিকদের	-1668
▁পরিস্থিতি	-1669
at	-1670
▁হুম	-1671
▁শিল্প	-1672
▁এম	-1673
▁কমি	-1674
্যায়	-1675
▁প্রার্থ	-1676
▁সাম্প্র	-1677
▁নিশ্চয়ই	-1678
▁প্রতিক্রিয়া	-1679
le	-1680
▁পাই	-1681
▁ভবি	-1682
▁কোম্প	-1683
রম	-1684
▁b	-1685
ীতে	-1686
▁বর	-1687
▁মন	-1688
▁টাই	-1689
▁ভেবে	-1690
▁সঠিক	-1691
▁যাচ্ছি	-1692
▁আমেরিকা	-1693
▁কেন্দ্র	-1694
▁টুইটারে	-1695
ণ্	-1696
▁জল	-1697
▁দায়	-1698
▁শো	-1699
▁ইয়	-1700
▁একদ	-1701
▁মুস	-1702
▁বাতি	-1703
▁ভবিষ্য	-1704
?’’	-1705
▁..	-1706
র্ষ	-1707
▁ne	-1708
▁উঠে	-1709
▁উইন্ড	-1710
▁লক্ষ্য	-1711
▁রিপোর্ট	-1712
▁দ্বিতীয়	-1713
াদি	-1714
▁হোক	-1715
▁বাঁচ	-1716
▁অনলাইন	-1717
▁উপস্থিত	-1718
খা	-1719
রোধ	-1720
▁বাক	-1721
ওয়ার্ড	-1722
্যাপ	-1723
্যানি	-1724
▁শিক্ষা	-1725
▁তাদেরকে	-1726
বু	-1727
ামি	-1728
ূপে	-1729
্রী	-1730
কর্ত	-1731
▁চলো	-1732
▁আত্ম	-1733
▁উদ্ধ	-1734
▁গুলি	-1735
▁দেখো	-1736
▁প্রকাশিত	-1737
▁বর্তমানে	-1738
▁তরু	-1739
▁তোর	-1740
▁নেত	-1741
য়ায়	-1742
▁আঘাত	-1743
▁প্রমাণ	-1744
ic	-1745
দান	-1746
ল্পনা	-1747
):	-1748
re	-1749
গান	-1750
যায়ী	-1751
▁বিস্ত	-1752
▁বৃদ্ধ	-1753
▁ক্ষমতা	-1754
▁সবকিছু	-1755
▁অনুগ্রহ	-1756
▁অনুষ্ঠিত	-1757
শা	-1758
▁আক	-1759
▁রকম	-1760
▁ইসলাম	-1761
▁নিজেকে	-1762
▁ঠ	-1763
▁দেবে	-1764
1$	-1765
ারের	-1766
▁ধার	-1767
▁পরিক	-1768
▁শিরোন	-1769
▁আপনারা	-1770
্বি	-1771
▁ভেত	-1772
▁লাভ	-1773
▁ত্রুটি	-1774
গি	-1775
রাজ	-1776
▁খুন	-1777
▁সংঘ	-1778
রাস	-1779
▁তি	-1780
▁শত	-1781
ময়	-1782
▁পাস	-1783
▁বসে	-1784
▁যেটা	-1785
▁পুনরায়	-1786
▁রাজনীতি	-1787
ুণ	-1788
▁ইং	-1789
▁গেল	-1790
▁হেই	-1791
প্রিয়	-1792
▁সামরিক	-1793
▁সাম্প্রতিক	-1794
2$	-1795
সর	-1796
▁চাও	-1797
▁তাঁদের	-1798
করা	-1799
▁মেরে	-1800
রাম	-1801
িনের	-1802
▁নাও	-1803
▁এখনও	-1804
▁এভাবে	-1805
▁স্মরণ	-1806
▁লিখেছে	-1807
▁অনুসন্ধান	-1808
▁T	-1809
ার্ন	-1810
ূর্ত	-1811
▁সাব	-1812
▁দয়া	-1813
▁ধারণা	-1814
▁পরিবেশ	-1815
▁D	-1816
▁আসা	-1817
▁দিব	-1818
▁পৌঁ	-1819
্যারি	-1820
▁নিচে	-1821
▁বলেছে	-1822
▁অনুসরণ	-1823
▁শাস্তি	-1824
টন	-1825
গুলি	-1826
▁অফি	-1827
▁মিশর	-1828
▁সমালো	-1829
ৃহ	-1830
▁c	-1831
্যকর	-1832
▁need	-1833
▁ছিলাম	-1834
▁অনুমতি	-1835
▁pro	-1836
▁নার	-1837
▁ধ্বংস	-1838
▁ভালোবাস	-1839
▁চোখ	-1840
▁সংখ	-1841
▁হবার	-1842
যে	-1843
সহ	-1844
▁৯	-1845
চরণ	-1846
▁সংস	-1847
▁জাতি	-1848
▁ফেলা	-1849
▁কার্য	-1850
▁জায়গ	-1851
▁দেয়ার	-1852
▁বাস্তব	-1853
▁সম্প্রতি	-1854
▁translation	-1855
গিয়ে	-1856
▁ছিলো	-1857
▁পায়	-1858
▁বাতিল	-1859
▁রাস্তায়	-1860
আমরা	-1861
য়ারি	-1862
▁সবার	-1863
▁do	-1864
▁মাম	-1865
▁ডলার	-1866
▁মিনিট	-1867
”।	-1868
▁অতি	-1869
▁পেরে	-1870
▁ওখানে	-1871
▁কর্মকর্ত	-1872
্লি	-1873
য়েল	-1874
▁আদাল	-1875
▁ইউরো	-1876
▁প্রস্তু	-1877
▁H	-1878
াসে	-1879
কালে	-1880
▁অস্ত	-1881
▁আসতে	-1882
▁আসবে	-1883
▁এখান	-1884
▁লড়াই	-1885
▁প্রেরণ	-1886
▁১৫	-1887
শ্চি	-1888
▁ফুট	-1889
▁সন্ত	-1890
▁সাক্ষা	-1891
কৃত	-1892
▁দশ	-1893
টাকে	-1894
▁এক্স	-1895
▁মার্ক	-1896
▁অনুসারে	-1897
▁প্রত্যা	-1898
কেল	-1899
শোধ	-1900
হাম	-1901
▁হও	-1902
র্ষণ	-1903
▁আসো	-1904
▁যথে	-1905
▁এলাকা	-1906
▁নেওয়া	-1907
▁আপনাদের	-1908
▁সম্পর্ক	-1909
▁উদ্দেশ্য	-1910
▁জনপ্রিয়	-1911
উন	-1912
মত	-1913
ুব	-1914
োনো	-1915
▁কাম	-1916
▁বাঁ	-1917
▁জানিয়েছেন	-1918
গের	-1919
▁in	-1920
▁স্থা	-1921
▁২০১১	-1922
ন্টা	-1923
▁আরব	-1924
▁ফ্র	-1925
▁অনুর	-1926
▁চালু	-1927
▁পরিচয়	-1928
▁অংশগ্রহণ	-1929
ন্ব	-1930
্যোগ	-1931
▁not	-1932
▁তরুণ	-1933
▁রাতে	-1934
▁একবার	-1935
▁থাকার	-1936
▁বিজ্ঞ	-1937
▁অনুযায়ী	-1938
▁অবস্থায়	-1939
▁কর্তৃপক্ষ	-1940
উট	-1941
শট	-1942
েধ	-1943
▁সহজ	-1944
▁কঠিন	-1945
▁ক্রি	-1946
▁সংগঠ	-1947
▁কাউকে	-1948
জ্জ	-1949
পার	-1950
▁কৌ	-1951
প্টে	-1952
▁পুরুষ	-1953
▁বার্ত	-1954
▁লোকের	-1955
মন্ত্রী	-1956
▁ইরানের	-1957
ঘট	-1958
▁ডাক	-1959
▁নীতি	-1960
▁পড়া	-1961
▁রক্ষা	-1962
▁হামলা	-1963
▁নী	-1964
▁does	-1965
▁বস্তু	-1966
▁ব্যক্তিগত	-1967
▁আয়	-1968
▁চাপ	-1969
▁বলবে	-1970
বিদ্যাল	-1971
▁পারবেন	-1972
লিক	-1973
▁নিক	-1974
্যালে	-1975
▁প্রভ	-1976
▁সৌদি	-1977
▁ঠিকানা	-1978
▁নির্দেশ	-1979
▁নির্ধারণ	-1980
▁ওয়েবসাইট	-1981
জরা	-1982
▁ট্রে	-1983
▁শুনে	-1984
োস	-1985
bab	-1986
ম্ভ	-1987
ক্ষম	-1988
▁ওরা	-1989
▁বিব	-1990
শিষ্ট	-1991
▁মানব	-1992
▁দৃশ্য	-1993
▁প্রস্ত	-1994
▁ব্যক্ত	-1995
▁যথেষ্ট	-1996
▁রাস্তা	-1997
▁সবসময়	-1998
▁প্রাপ্ত	-1999
খি	-2000
টিভ	-2001
bably	-2002
▁রক্ত	-2003
▁সম্ভবত	-2004
▁probably	-2005
উজ	-2006
থ্যা	-2007
ধ্যে	-2008
▁এনে	-2009
▁ড্র	-2010
▁সাল	-2011
বাদের	-2012
▁ওদের	-2013
তন্ত্র	-2014
▁হয়েছেন	-2015
▁h	-2016
বীর	-2017
▁নো	-2018
য়াম	-2019
▁যাব	-2020
▁আছেন	-2021
▁পেতে	-2022
▁বক্ত	-2023
▁মেইল	-2024
▁সরিয়ে	-2025
আপ	-2026
বহ	-2027
▁w	-2028
লিজ	-2029
বারে	-2030
▁হাই	-2031
▁যুক্তরাষ্ট্র	-2032
জয়	-2033
ূলক	-2034
লায়	-2035
ভুক্ত	-2036
▁কারনে	-2037
▁নিষেধ	-2038
▁বিশ্ববিদ্যাল	-2039
▁বিবে	-2040
▁মাসে	-2041
▁সম্ম	-2042
▁বিপ্ল	-2043
▁যাত্র	-2044
▁সময়ের	-2045
▁জায়গায়	-2046
▁রোগ	-2047
▁শতা	-2048
▁তাতে	-2049
▁রাখতে	-2050
▁পৃথিবী	-2051
ল্ড	-2052
নির্	-2053
▁দিচ্ছে	-2054
ন্থ	-2055
শালী	-2056
▁দার	-2057
▁আকার	-2058
▁এইসব	-2059
▁কর্মী	-2060
▁সংযোগ	-2061
▁অ্যাকা	-2062
▁বর্ণনা	-2063
▁ব্লগের	-2064
▁ভালবাস	-2065
▁রাজধান	-2066
পু	-2067
▁গাজ	-2068
▁শ্র	-2069
▁সর্	-2070
▁লেখক	-2071
▁হয়ত	-2072
▁সংগ্রহ	-2073
▁&	-2074
লিম	-2075
াইনে	-2076
▁ঘুম	-2077
▁জ্ব	-2078
▁মিল	-2079
মেন্ট	-2080
▁অস্ব	-2081
▁সতর্ক	-2082
▁নেটওয়	-2083
▁পরিমাণ	-2084
▁বাহিনী	-2085
AR	-2086
াসা	-2087
▁নই	-2088
▁উদয	-2089
▁ফাই	-2090
িকায়	-2091
▁চলচ্	-2092
▁পত্র	-2093
▁এগুলো	-2094
▁শুনতে	-2095
▁দৃষ্টি	-2096
▁প্রভুর	-2097
▁প্রতিষ্ঠান	-2098
▁কাল	-2099
ক্ষেপ	-2100
▁আহ্ব	-2101
▁সমাজ	-2102
▁জানেন	-2103
২০	-2104
▁বলি	-2105
▁প্রি	-2106
▁চিত্র	-2107
▁প্লিজ	-2108
▁আক্রমণ	-2109
as	-2110
জনের	-2111
ভারে	-2112
▁করছ	-2113
▁পাত	-2114
বিশ্ব	-2115
ান্তর	-2116
▁নিহত	-2117
▁ভাষা	-2118
▁মিলি	-2119
▁বিদেশ	-2120
▁আয়োজন	-2121
▁সত্যিই	-2122
▁বিস্তার	-2123
চিৎ	-2124
ল্ট	-2125
▁এপ	-2126
কর্ম	-2127
ীর্ঘ	-2128
▁ঐতি	-2129
▁দিক	-2130
▁তারিখ	-2131
▁দিনের	-2132
▁লাগবে	-2133
▁ইয়েমে	-2134
▁সন্ত্র	-2135
▁সম্মান	-2136
ানিক	-2137
▁দেব	-2138
▁দীর্ঘ	-2139
▁বিমান	-2140
▁অনুরোধ	-2141
▁f	-2142
▁ভো	-2143
▁রং	-2144
নৈতিক	-2145
▁পাঁচ	-2146
▁প্রয	-2147
▁ভুলে	-2148
▁সাইট	-2149
▁দেখুন	-2150
▁অভিজ্ঞ	-2151
▁জানিয়েছে	-2152
কু	-2153
তু	-2154
▁%1$	-2155
▁দোষ	-2156
▁বেঁ	-2157
▁উচিৎ	-2158
▁এটাকে	-2159
▁এসেছি	-2160
▁ছবিটি	-2161
▁আহ্বান	-2162
▁এগিয়ে	-2163
▁সন্দেহ	-2164
▁পরিচিতি	-2165
▁U	-2166
ing	-2167
▁পাশ	-2168
▁ছবির	-2169
▁পাবে	-2170
▁পালন	-2171
▁সঙ্গ	-2172
▁পশ্চি	-2173
▁পারবো	-2174
টাল	-2175
▁৩০	-2176
াদার	-2177
ার্স	-2178
▁দেন	-2179
▁কারো	-2180
▁দ্যা	-2181
▁প্লা	-2182
▁বিনি	-2183
▁আইনের	-2184
▁তাঁরা	-2185
আমার	-2186
সমূহ	-2187
▁খুঁজ	-2188
▁খোলা	-2189
▁বিয়ে	-2190
▁এলাকায়	-2191
▁কয়েকটি	-2192
▁প্রতিযোগ	-2193
দী	-2194
▁মূল্য	-2195
▁ইতিহাস	-2196
▁সবাইকে	-2197
▁অ্যাকাউন্ট	-2198
োপ	-2199
▁g	-2200
▁–	-2201
াজি	-2202
লিপি	-2203
াকার	-2204
▁%2$	-2205
▁এরকম	-2206
▁পাতা	-2207
▁মাথা	-2208
▁চীনের	-2209
▁থাকলে	-2210
▁আন্দোলন	-2211
▁প্রস্তাব	-2212
কর	-2213
▁ধরা	-2214
▁রাত	-2215
দিষ্ট	-2216
নিয়া	-2217
রেক্ট	-2218
ফা	-2219
ৃদ	-2220
BAR	-2221
্তিক	-2222
▁ট্যা	-2223
▁দাবী	-2224
▁দুটি	-2225
▁নিয়েছে	-2226
েতু	-2227
্রাম	-2228
▁আরে	-2229
▁গান	-2230
▁স্কুল	-2231
▁ঘটনায়	-2232
▁ফিরিয়ে	-2233
▁হারিয়ে	-2234
▁চলচ্চিত্র	-2235
▁B	-2236
▁যৌন	-2237
ম্যান	-2238
▁পারব	-2239
▁শ্রম	-2240
▁তাঁকে	-2241
▁পরিকল্পনা	-2242
ad	-2243
▁ل	-2244
▁চম	-2245
্রাণ	-2246
▁জাম	-2247
স্থার	-2248
▁মায়	-2249
▁উপায়	-2250
▁ক্ষমা	-2251
▁প্রচে	-2252
ুরে	-2253
র্শন	-2254
স্থান	-2255
হিনীর	-2256
▁গেলে	-2257
om	-2258
▁উভ	-2259
▁এসো	-2260
▁গৃহ	-2261
▁এদের	-2262
▁এদিকে	-2263
▁উপস্থা	-2264
▁নির্মাণ	-2265
▁স্বাক্ষ	-2266
▁অনুষ্ঠান	-2267
এফ	-2268
্লে	-2269
াস্ত	-2270
▁চলছে	-2271
▁শহরে	-2272
▁বলছেন	-2273
▁অন্তর্	-2274
▁মিথ্যা	-2275
▁পেয়েছি	-2276
▁বার্তার	-2277
ডো	-2278
িদ্ধ	-2279
▁ফলা	-2280
▁লুক	-2281
▁গোপন	-2282
▁টেলি	-2283
▁আক্রান্ত	-2284
▁আমেরিকার	-2285
▁স্বাধীনতা	-2286
োঁ	-2287
পূর্	-2288
ব্রু	-2289
হেতু	-2290
▁মজা	-2291
▁শেয়ার	-2292
▁অবস্থিত	-2293
▁মার্কিন	-2294
▁প্রস্তুত	-2295
▁F	-2296
▁উৎস	-2297
▁জাহ	-2298
▁যাক	-2299
কারীর	-2300
টিয়ে	-2301
▁উন্ম	-2302
▁থাকো	-2303
▁নেতা	-2304
▁বেছে	-2305
▁সেনা	-2306
▁সাক্ষাৎকার	-2307
▁O	-2308
▁أ	-2309
ুরী	-2310
ীর্ষ	-2311
▁ওপর	-2312
▁দিনে	-2313
▁বোমা	-2314
▁সুবি	-2315
▁আনন্দ	-2316
▁লাগছে	-2317
▁করিয়ে	-2318
▁স্বাস্থ	-2319
nt	-2320
olu	-2321
দন্ত	-2322
▁জোর	-2323
▁নিন	-2324
▁মিস	-2325
▁আগামী	-2326
▁অন্যতম	-2327
▁সংস্থা	-2328
▁নিষিদ্ধ	-2329
কল	-2330
সন	-2331
পরে	-2332
▁কৃ	-2333
্যুর	-2334
▁ইংরে	-2335
▁ইজরা	-2336
▁এবার	-2337
▁বিপর	-2338
কারীরা	-2339
▁আলাদা	-2340
▁৷	-2341
জীব	-2342
▁বাজ	-2343
চ্ছিল	-2344
হাম্ম	-2345
▁অর্থনৈতিক	-2346
▁প্রধানমন্ত্রী	-2347
▁কমান	-2348
▁শ্রে	-2349
▁শতাংশ	-2350
▁পড়েছে	-2351
▁মনোযোগ	-2352
),	-2353
lo	-2354
of	-2355
রত	-2356
▁ب	-2357
▁মৌ	-2358
▁জনগণ	-2359
▁সরাস	-2360
ডিয়ার	-2361
▁শীর্ষ	-2362
▁সন্ত্রাস	-2363
▁L	-2364
ডিং	-2365
র্য	-2366
▁হু	-2367
▁আনা	-2368
▁প্ল	-2369
জেন্ট	-2370
▁আলোচ	-2371
▁পারো	-2372
▁বলার	-2373
▁মুসলিম	-2374
▁বৈশিষ্ট	-2375
▁m	-2376
▁ف	-2377
ুদ্র	-2378
▁সাহ	-2379
▁খুশি	-2380
▁অন্তত	-2381
▁বাধ্য	-2382
▁ব্যাপক	-2383
▁সরাসরি	-2384
▁হ্যাশট	-2385
▁একমাত্র	-2386
▁কয়েকজন	-2387
ণা	-2388
টিং	-2389
▁আদি	-2390
▁খুল	-2391
▁জাদ	-2392
▁যাকে	-2393
▁মুক্তি	-2394
▁যেহেতু	-2395
▁ডিরেক্ট	-2396
▁সংস্কৃতি	-2397
▁সিরিয়ার	-2398
ুমে	-2399
▁পত	-2400
ক্সি	-2401
াত্ম	-2402
ধারিত	-2403
▁আদেশ	-2404
নিয়ার	-2405
▁পেছনে	-2406
▁নিরাপদ	-2407
▁প্রতিনি	-2408
▁প্রয়োগ	-2409
▁সপ্তাহে	-2410
▁ব্লগারদের	-2411
সাম	-2412
▁'%	-2413
▁আহত	-2414
▁চাক	-2415
▁বাল	-2416
ভাবিক	-2417
▁উপাস	-2418
▁কনফি	-2419
▁বিজয়	-2420
▁সহযোগ	-2421
▁দিচ্ছি	-2422
▁স্বাগত	-2423
▁ধর্মীয়	-2424
el	-2425
টর	-2426
ীরে	-2427
সাথে	-2428
▁কিং	-2429
▁ফের	-2430
▁ইউনি	-2431
▁লাগে	-2432
▁২০১২	-2433
▁এপ্রি	-2434
▁জুড়ে	-2435
▁বেড়ে	-2436
▁মালিক	-2437
▁জনগণের	-2438
▁নাগরিকরা	-2439
▁"%	-2440
▁লগ	-2441
▁১২	-2442
▁বসব	-2443
▁আগের	-2444
▁আমিও	-2445
▁ইয়া	-2446
▁দরজা	-2447
▁পদ্ধ	-2448
▁বদলে	-2449
▁সেরা	-2450
▁সীমান	-2451
▁কীভাবে	-2452
▁স্থানে	-2453
▁মৃত্যুর	-2454
েস	-2455
▁সচ	-2456
▁মতে	-2457
▁ধারা	-2458
▁ভেতরে	-2459
▁চুক্তি	-2460
▁বিষয়ক	-2461
▁রাজধানী	-2462
▁ব্যবহারের	-2463
▁নিয়ন্ত্রণ	-2464
ট্র	-2465
োনে	-2466
িকিৎ	-2467
খ্যাত	-2468
▁ধারণ	-2469
▁নেয়	-2470
▁লাইসে	-2471
▁সহায়	-2472
▁অনুবাদ	-2473
▁এলাকার	-2474
▁পৃথিবীর	-2475
▁পাসওয়ার্ড	-2476
এব	-2477
চক	-2478
ভর	-2479
ড়ো	-2480
যান	-2481
▁দৌ	-2482
ুরের	-2483
▁প্রজ	-2484
▁তিউনি	-2485
▁দেবার	-2486
▁বিশাল	-2487
▁রাখার	-2488
▁উদ্যোগ	-2489
▁প্রিয়	-2490
▁ভিত্তি	-2491
▁পেয়েছে	-2492
▁হ্যাশট্যাগ	-2493
▁বিত	-2494
▁বিল	-2495
▁জানু	-2496
▁বাকি	-2497
শিয়ান	-2498
▁অনুমো	-2499
▁গ্রুপ	-2500
▁ঘটেছে	-2501
▁চিকিৎ	-2502
▁ফিলিপ	-2503
olution	-2504
▁মালয়ে	-2505
▁লোকদের	-2506
ge	-2507
ঠি	-2508
ত্	-2509
ুঁ	-2510
ম্ন	-2511
লেই	-2512
স্প	-2513
াইভ	-2514
▁Ev	-2515
▁কথ	-2516
▁লু	-2517
▁পথে	-2518
▁ভিতরে	-2519
▁জীবনের	-2520
▁নিজস্ব	-2521
▁অনলাইনে	-2522
▁দেওয়ার	-2523
▁ভারতীয়	-2524
ামত	-2525
▁(@	-2526
▁অজ	-2527
▁জ্ঞ	-2528
▁নথি	-2529
▁বহু	-2530
▁বেল	-2531
▁রাই	-2532
▁উৎসব	-2533
▁মুখো	-2534
▁দেখেছি	-2535
▁মিশরের	-2536
▁প্রচারণা	-2537
tt	-2538
নী	-2539
জেন	-2540
▁হন	-2541
ন্টে	-2542
▁জয়	-2543
▁দান	-2544
▁মুহ	-2545
▁এরপর	-2546
▁ফুটবল	-2547
উই	-2548
গর	-2549
বাই	-2550
সিক	-2551
▁আঁ	-2552
▁সৃ	-2553
্বেও	-2554
▁একদম	-2555
▁পড়তে	-2556
▁প্রোগ	-2557
▁ফেসবুকে	-2558
▁বিস্তারিত	-2559
▁]	-2560
▁চুপ	-2561
ক্ষিত	-2562
জন্যে	-2563
▁আকাশ	-2564
▁দূরে	-2565
▁মুখে	-2566
▁তদন্ত	-2567
▁বেঁচে	-2568
▁কর্মসূ	-2569
▁পাঠানো	-2570
▁প্রথমে	-2571
▁কনফিগার	-2572
▁মোহাম্ম	-2573
▁সামান্য	-2574
▁জানাচ্ছে	-2575
▁সমালোচনা	-2576
▁স্বাস্থ্য	-2577
:%	-2578
চু	-2579
জী	-2580
দু	-2581
▁_	-2582
প্ট	-2583
▁হত	-2584
▁২৫	-2585
শনের	-2586
িয়া	-2587
▁লোড	-2588
▁হৃদ	-2589
▁কোথা	-2590
▁দেখি	-2591
▁ভারতের	-2592
▁গ্রেপ্ত	-2593
▁প্রক্রিয়া	-2594
▁সম্প্রদায়ের	-2595
নাম	-2596
াজ্ঞ	-2597
▁কাঁ	-2598
▁ভ্রম	-2599
▁আফ্রিকা	-2600
▁মিশরীয়	-2601
▁Evolution	-2602
▁উদ্দেশ্যে	-2603
il	-2604
চা	-2605
মস	-2606
কান	-2607
▁সৈ	-2608
্বার	-2609
▁অসম	-2610
▁আসল	-2611
▁দূর	-2612
▁শুভ	-2613
দর্শন	-2614
▁এশিয়া	-2615
ন্ত্রণাল	-2616
▁পুরস্কার	-2617
জর	-2618
▁দখ	-2619
▁এছা	-2620
▁পাথ	-2621
▁করেছ	-2622
▁কষ্ট	-2623
▁ফ্রে	-2624
▁পক্ষে	-2625
▁ফাঁকা	-2626
▁বসবাস	-2627
▁মাসের	-2628
▁নির্যা	-2629
▁চালিয়ে	-2630
▁সংযুক্ত	-2631
ey	-2632
এল	-2633
কোন	-2634
লোড	-2635
▁বহ	-2636
▁ইরা	-2637
▁সফল	-2638
▁আসার	-2639
▁চার্	-2640
▁আরম্ভ	-2641
▁করেনি	-2642
▁মেক্স	-2643
▁লেখার	-2644
▁একসাথে	-2645
▁সরকারী	-2646
▁ফ্লিকার	-2647
▁মন্ত্রণাল	-2648
ৃতিক	-2649
▁দাম	-2650
▁বৈধ	-2651
▁কম্প	-2652
আমাদের	-2653
▁সিস্টে	-2654
▁ফিলিস্ত	-2655
▁সম্পূর্ণ	-2656
▁দাঁড়িয়ে	-2657
▁প্রচেষ্টা	-2658
গণ	-2659
▁ع	-2660
তরা	-2661
্রয়	-2662
বারের	-2663
▁বাজে	-2664
▁ফলাফল	-2665
▁সক্ষম	-2666
▁গিয়েছে	-2667
▁প্রতিরোধ	-2668
▁স্বাক্ষর	-2669
এক	-2670
িং	-2671
্ধ	-2672
ীকে	-2673
▁গভ	-2674
▁টু	-2675
উন্ড	-2676
▁উদাহ	-2677
▁ক্লা	-2678
▁রক্ষ	-2679
▁পূর্ণ	-2680
▁অস্ত্র	-2681
▁নারীদের	-2682
▁পুলিশের	-2683
▁দায়িত্ব	-2684
াফ	-2685
তেই	-2686
বদ্ধ	-2687
িক্স	-2688
▁এইচ	-2689
▁এতো	-2690
▁শোন	-2691
ভিস্ট	-2692
▁কার্	-2693
▁টিভি	-2694
▁করলাম	-2695
▁পদ্ধতি	-2696
▁পরিবারের	-2697
▁প্রত্যেক	-2698
▁ব্লগাররা	-2699
▁নির্বাচনের	-2700
পাল	-2701
ানু	-2702
্টা	-2703
▁কাপ	-2704
▁অপশন	-2705
▁দেখার	-2706
▁হুমকি	-2707
▁আফ্রিকার	-2708
▁প্রতিদিন	-2709
ফোর	-2710
েতন	-2711
য়াস	-2712
য়োজ	-2713
▁আটক	-2714
▁বরং	-2715
▁হাল	-2716
▁ইতোম	-2717
▁খুলে	-2718
▁ডাক্ত	-2719
▁বেশীর	-2720
▁মুদ্র	-2721
▁উইন্ডো	-2722
▁চ্যানে	-2723
▁শ্রমিক	-2724
▁সন্তান	-2725
▁সমাধান	-2726
▁প্রতিবেদন	-2727
োহ	-2728
তাকে	-2729
ফল্ট	-2730
মেইল	-2731
▁আবি	-2732
▁অপ্র	-2733
▁আগুন	-2734
▁এটার	-2735
▁দিবে	-2736
▁ঘন্টা	-2737
▁পর্যা	-2738
▁লোকজন	-2739
▁উদ্ধার	-2740
▁অনুলিপি	-2741
▁করেছেনঃ	-2742
▁শিরোনাম	-2743
▁কার্যক্র	-2744
▁নিষেধাজ্ঞ	-2745
ড়ের	-2746
রূপে	-2747
লাইন	-2748
ানার	-2749
▁আজকে	-2750
▁তেমন	-2751
গ্রস্ত	-2752
▁চমৎকার	-2753
▁বিতর্ক	-2754
তর	-2755
and	-2756
বলী	-2757
বেদ	-2758
ষ্ক	-2759
২০১	-2760
ন্যা	-2761
▁খোঁ	-2762
▁জুল	-2763
▁শুক	-2764
্যালো	-2765
▁অগ্র	-2766
▁আগেই	-2767
▁দ্বী	-2768
▁প্যা	-2769
▁সত্ত	-2770
ল্যান্ড	-2771
▁নির্ভর	-2772
▁পোস্টে	-2773
গ্ন	-2774
লিত	-2775
শের	-2776
িকো	-2777
▁শা	-2778
▁হই	-2779
ক্টো	-2780
তরাং	-2781
পন্থ	-2782
বাইল	-2783
▁কৃষ	-2784
▁পেশ	-2785
▁বৃহ	-2786
▁১০০	-2787
্যমান	-2788
▁গাড়	-2789
▁প্রাক	-2790
▁বলেছি	-2791
▁উদযাপন	-2792
▁সৌজন্যে	-2793
▁শক্তিশালী	-2794
st	-2795
হো	-2796
▁2	-2797
▁N	-2798
▁ي	-2799
টুক	-2800
মেল	-2801
টিফি	-2802
লিখিত	-2803
▁ইরান	-2804
▁পক্ষ	-2805
▁কমান্ড	-2806
▁বিক্রি	-2807
▁যুদ্ধের	-2808
▁স্বীকার	-2809
▁অভিজ্ঞতা	-2810
▁জিজ্ঞাসা	-2811
▁প্রযুক্তি	-2812
চী	-2813
▁ت	-2814
মির	-2815
▁ওঠ	-2816
▁সফ	-2817
▁১৮	-2818
▁৫০	-2819
সারণ	-2820
▁the	-2821
▁আর্ক	-2822
▁ডিসে	-2823
▁তাড়	-2824
▁আবেদন	-2825
▁প্রাণ	-2826
▁বৃদ্ধি	-2827
▁বক্তব্য	-2828
▁মানুষকে	-2829
প্ন	-2830
▁ঘৃ	-2831
▁১১	-2832
য়াদ	-2833
▁করত	-2834
▁খাদ	-2835
▁ইন্দ	-2836
▁মার্চ	-2837
▁যাবার	-2838
▁স্ক্র	-2839
স্তানের	-2840
▁বাচ্চা	-2841
▁মোবাইল	-2842
▁জিজ্ঞেস	-2843
▁পাওয়ার	-2844
▁সম্পাদক	-2845
াইল্যান্ড	-2846
▁স্বাভাবিক	-2847
লেট	-2848
▁খর	-2849
▁ফল	-2850
▁শী	-2851
ঙ্গা	-2852
▁কপি	-2853
▁খালি	-2854
াতাড়ি	-2855
▁ইউরোপ	-2856
▁বিভাগ	-2857
▁সর্বো	-2858
▁উদাহরণ	-2859
▁স্থাপন	-2860
▁নির্বাচনে	-2861
▁যুক্তরাষ্ট্রের	-2862
//	-2863
জো	-2864
জিং	-2865
টেল	-2866
ীনে	-2867
শেষে	-2868
ানির	-2869
▁উপল	-2870
▁উৎসা	-2871
▁বার্	-2872
▁লাইন	-2873
▁অনুভূ	-2874
▁ইচ্ছা	-2875
▁জাহাজ	-2876
▁মহিলা	-2877
▁স্বয়	-2878
▁জানাতে	-2879
বেগ	-2880
সাই	-2881
▁ফু	-2882
ায়ক	-2883
্রিক	-2884
▁সমক	-2885
▁গ্রাম	-2886
▁এপ্রিল	-2887
▁সিরিয়া	-2888
▁সার্টিফি	-2889
▁ডিরেক্টরি	-2890
ীম	-2891
জ্য	-2892
▁ভব	-2893
▁সুর	-2894
▁ঈশ্ব	-2895
▁উপাদ	-2896
▁ঐতিহ	-2897
▁গুলো	-2898
▁অক্টো	-2899
▁অধীনে	-2900
▁দেখছি	-2901
▁আরেকটি	-2902
▁ডিফল্ট	-2903
▁ভেঙ্গে	-2904
▁স্ত্রী	-2905
▁আমেরিকান	-2906
▁সত্যিকার	-2907
▁নির্দিষ্ট	-2908
▁নেটওয়ার্ক	-2909
ণি	-2910
ডের	-2911
দ্ব	-2912
ভুত	-2913
িনো	-2914
নীয়	-2915
▁অধি	-2916
▁গবে	-2917
▁গাছ	-2918
▁তাক	-2919
▁উদ্ব	-2920
▁বুঝে	-2921
▁ব্রা	-2922
▁সংসদ	-2923
▁আগ্রহ	-2924
▁বিদ্যু	-2925
▁সংস্করণ	-2926
▁গ্রেপ্তার	-2927
টিউ	-2928
বির	-2929
ব্র	-2930
সংখ	-2931
▁১৪	-2932
গারে	-2933
ড়িত	-2934
িতার	-2935
▁পারছি	-2936
▁বিদ্র	-2937
▁প্রদেশ	-2938
▁যুক্তি	-2939
▁সুবিধা	-2940
▁পাকিস্তান	-2941
▁থাইল্যান্ড	-2942
জান	-2943
াপা	-2944
তুমি	-2945
লিকে	-2946
▁নভে	-2947
▁ফির	-2948
িন্দা	-2949
▁অক্ষ	-2950
▁ক্রম	-2951
▁পরাম	-2952
▁সেকে	-2953
▁২০১৩	-2954
▁পৃষ্ঠ	-2955
চ্ছিন্ন	-2956
▁কাহিনী	-2957
▁যন্ত্র	-2958
▁সংঘর্ষ	-2959
▁সরকারি	-2960
▁ইন্দোনে	-2961
▁পরামর্শ	-2962
▁প্রদর্শিত	-2963
▁তাড়াতাড়ি	-2964
ডা	-2965
ৈধ	-2966
▁`	-2967
টিল	-2968
ধ্ব	-2969
▁মস	-2970
দ্ধা	-2971
ড়াতে	-2972
তোমরা	-2973
পূর্ব	-2974
▁পাবেন	-2975
▁যোগ্য	-2976
ন্বন্ধে	-2977
▁ন্যায়	-2978
▁পূর্বে	-2979
▁হ্যালো	-2980
▁ক্ষেত্র	-2981
▁ইতোমধ্যে	-2982
▁করেছিলেন	-2983
▁গিয়েছিল	-2984
▁বাংলাদেশের	-2985
ec	-2986
নির	-2987
ক্রে	-2988
▁কোরি	-2989
▁বছরে	-2990
▁ভূমিক	-2991
▁মেয়ের	-2992
▁প্রতিটি	-2993
▁মিলিয়ন	-2994
▁সমস্যার	-2995
▁পাকিস্তানের	-2996
টস	-2997
পো	-2998
বেল	-2999
মোট	-3000
▁ভু	-3001
▁সন	-3002
▁উনি	-3003
▁ছয়	-3004
য়ারে	-3005
▁আচরণ	-3006
▁উভয়	-3007
▁মজার	-3008
▁শাসন	-3009
▁সেটি	-3010
▁আসলেই	-3011
▁ডিস্ক	-3012
▁মতামত	-3013
▁সংখ্যক	-3014
▁তুলেছেন	-3015
▁বিদ্যমান	-3016
▁সংবাদপত্র	-3017
▁স্বাধীনতার	-3018
▁অন্তর্ভুক্ত	-3019
বিল	-3020
ন্সি	-3021
▁লাল	-3022
ন্ডার	-3023
▁দর্শ	-3024
▁নষ্ট	-3025
▁বয়স	-3026
▁কোথাও	-3027
▁লেবান	-3028
▁সচেতন	-3029
▁আকর্ষণ	-3030
▁পাঠিয়ে	-3031
▁আমাদেরকে	-3032
▁প্রদর্শনের	-3033
un	-3034
ut	-3035
▁R	-3036
ব্ল	-3037
লির	-3038
্বল	-3039
▁`%	-3040
ক্রি	-3041
ঙ্গু	-3042
ড়ার	-3043
রোক্	-3044
ালার	-3045
িনার	-3046
▁জুন	-3047
▁জেল	-3048
ভাবেই	-3049
▁দক্ষ	-3050
▁বিপদ	-3051
▁রাখে	-3052
্রান্ত	-3053
▁অঞ্চল	-3054
▁অনুভব	-3055
▁উত্তে	-3056
▁জ্যাক	-3057
▁প্রাচ	-3058
▁সেখান	-3059
বিশ্বাস	-3060
▁পরিশোধ	-3061
▁ফেব্রু	-3062
ঘ্র	-3063
বরা	-3064
বিক	-3065
িংস	-3066
▁ফর	-3067
ন্সর	-3068
▁পর্	-3069
কাণ্ড	-3070
বস্তু	-3071
▁অবৈধ	-3072
▁চুরি	-3073
▁হলেও	-3074
▁কাজেই	-3075
▁জীবনে	-3076
▁থেকেই	-3077
▁ফেলতে	-3078
▁বুদ্ধ	-3079
▁পর্যবে	-3080
▁স্বপ্ন	-3081
▁স্মৃতি	-3082
▁দিয়েছি	-3083
ch	-3084
র্ট	-3085
ল্ল	-3086
সায়	-3087
▁ঘণ্	-3088
▁সান	-3089
গান্ড	-3090
▁অনুপ	-3091
▁জলদি	-3092
▁সন্ধ	-3093
▁২০১০	-3094
স্ট্রে	-3095
▁আজকের	-3096
▁জানান	-3097
▁পড়ার	-3098
▁সকালে	-3099
▁বাহিনীর	-3100
▁বিবেচনা	-3101
▁সম্পন্ন	-3102
▁করেছিলাম	-3103
▁ভূমিকম্প	-3104
লী	-3105
মেদ	-3106
ড়াল	-3107
▁বোন	-3108
ড়ায়	-3109
াত্মক	-3110
▁ধীরে	-3111
▁যাবো	-3112
▁শত্র	-3113
▁সেবা	-3114
▁২০০৯	-3115
▁জুলাই	-3116
▁হামলার	-3117
▁সর্বশেষ	-3118
▁অস্বীকার	-3119
▁সত্ত্বেও	-3120
▁বিচ্ছিন্ন	-3121
রন	-3122
ttp	-3123
▁গঠ	-3124
▁দৈ	-3125
শ্রু	-3126
▁চীনা	-3127
▁তোলা	-3128
▁শীঘ্র	-3129
▁পাচ্ছি	-3130
▁মুখোমু	-3131
▁উন্নয়ন	-3132
am	-3133
ان	-3134
রীর	-3135
লিং	-3136
▁এড	-3137
▁পূ	-3138
▁উৎপ	-3139
▁কাঠ	-3140
▁কুক	-3141
▁নজর	-3142
▁রুম	-3143
▁সাত	-3144
মানের	-3145
▁ধরতে	-3146
▁নীচে	-3147
▁গতকাল	-3148
▁থাকেন	-3149
▁ভাষার	-3150
▁মরোক্	-3151
▁মামলা	-3152
বাসীদের	-3153
▁অনেকেই	-3154
▁ক্যালে	-3155
▁সুতরাং	-3156
▁অনুমোদন	-3157
▁সংস্কার	-3158
▁সেকেন্ড	-3159
কিং	-3160
ছুর	-3161
ণ্ঠ	-3162
বাব	-3163
িক্	-3164
▁ঘরে	-3165
▁হতা	-3166
বিয়া	-3167
▁পরের	-3168
▁সিনে	-3169
▁২০১৪	-3170
▁অর্জন	-3171
▁নিম্ন	-3172
▁সূত্র	-3173
▁মাথায়	-3174
▁স্পষ্ট	-3175
▁পালিয়ে	-3176
▁মুহূর্ত	-3177
▁পরিচালিত	-3178
▁রাশিয়ার	-3179
▁প্রোগ্রাম	-3180
▁পরিবর্তনের	-3181
--	-3182
ভো	-3183
▁১৩	-3184
িকের	-3185
▁অদ্	-3186
▁অডিও	-3187
▁শেষে	-3188
▁নিয়ম	-3189
▁সহিংস	-3190
▁কার্যকর	-3191
▁দুর্নীতি	-3192
▁মুখোমুখি	-3193
ুখ	-3194
▁”	-3195
এইচ	-3196
▁সৎ	-3197
বায়	-3198
ম্বা	-3199
▁তেল	-3200
▁বহি	-3201
▁মাদ	-3202
▁রূপ	-3203
▁হাঁ	-3204
▁১৯৯	-3205
▁আসুন	-3206
▁কালো	-3207
▁যেসব	-3208
▁ঐতিহ্য	-3209
▁কাভারে	-3210
▁জানানো	-3211
▁শীঘ্রই	-3212
▁সেগুলো	-3213
▁এছাড়াও	-3214
▁বানিয়ে	-3215
ين	-3216
ইউ	-3217
▁০	-3218
চাই	-3219
ফার	-3220
ম্য	-3221
য়ত	-3222
▁অস	-3223
▁ওব	-3224
▁ঘর	-3225
▁১৬	-3226
্রেস	-3227
▁দখল	-3228
▁মোট	-3229
▁রেক	-3230
ার্থী	-3231
▁অন্ধ	-3232
▁অভিন	-3233
▁আনতে	-3234
▁ছিলে	-3235
▁জর্জ	-3236
▁পরিত	-3237
▁লেগে	-3238
▁একত্র	-3239
▁আশ্রয়	-3240
▁বিদেশী	-3241
▁ডাক্তার	-3242
▁দেখিয়ে	-3243
▁পদক্ষেপ	-3244
▁প্রদানের	-3245
▁নির্ধারিত	-3246
ভোগ	-3247
ুনা	-3248
▁of	-3249
▁১৭	-3250
চ্ছু	-3251
▁টুল	-3252
ভাগ্য	-3253
াক্তন	-3254
▁দিবস	-3255
▁নানা	-3256
▁শক্ত	-3257
▁ইরানী	-3258
▁বেশির	-3259
▁কমিউনি	-3260
▁জানায়	-3261
▁ভবিষ্যৎ	-3262
▁সিস্টেম	-3263
▁বলেছিলাম	-3264
▁সর্বোচ্চ	-3265
পথ	-3266
মিন	-3267
শাক	-3268
ভঙ্গ	-3269
ান্স	-3270
▁কিউ	-3271
▁কৃত	-3272
▁মের	-3273
ব্যাপ	-3274
▁পাগল	-3275
▁ব্রি	-3276
সাধারণ	-3277
▁একদিন	-3278
▁জ্ঞান	-3279
▁দায়ী	-3280
▁ফেলবে	-3281
▁বাবার	-3282
▁তারপরে	-3283
▁প্রচারণ	-3284
▁উপস্থাপন	-3285
▁প্রার্থনা	-3286
▁ফোল্ডারের	-3287
করণ	-3288
িতে	-3289
ৃত্ব	-3290
▁দুর	-3291
▁আস্ত	-3292
▁করুণ	-3293
▁ডাটা	-3294
▁পৌঁছ	-3295
▁রাজা	-3296
▁স্বে	-3297
▁জিনিষ	-3298
▁সংগঠন	-3299
▁কর্তৃক	-3300
▁প্রতীক	-3301
▁সম্মেল	-3302
▁একেবারে	-3303
▁নাম্বার	-3304
▁ক্যাপ্টে	-3305
▁মাধ্যমের	-3306
ac	-3307
ংসা	-3308
কেই	-3309
ণ্য	-3310
নাব	-3311
▁তত	-3312
▁মূ	-3313
টায়	-3314
▁ডান	-3315
▁জনের	-3316
▁ডিজি	-3317
▁পাহা	-3318
▁রায়	-3319
▁শত্রু	-3320
ংক্রিয়	-3321
▁চ্যালে	-3322
▁ব্যবসা	-3323
▁ব্রাজি	-3324
AP	-3325
শী	-3326
://	-3327
থার	-3328
ভূত	-3329
▁২৪	-3330
▁এরা	-3331
ন্সের	-3332
▁মেনে	-3333
▁আদালত	-3334
▁দেখাও	-3335
▁প্রাপ	-3336
▁বন্দী	-3337
▁উপাদান	-3338
▁বৃষ্টি	-3339
▁প্রবন্ধ	-3340
▁বিশ্বকা	-3341
▁বিস্ফোর	-3342
▁প্রাক্তন	-3343
et	-3344
লস	-3345
টিক	-3346
তাস	-3347
বেক	-3348
মেন	-3349
রির	-3350
শার	-3351
ত্তার	-3352
লিয়া	-3353
▁অল্প	-3354
▁ইউটিউ	-3355
▁খেয়ে	-3356
ষ্ক্রিয়	-3357
▁অঞ্চলের	-3358
▁বাড়িতে	-3359
▁দিয়েছিল	-3360
▁সার্টিফিকেট	-3361
ow	-3362
ri	-3363
▁W	-3364
িন্	-3365
▁গি	-3366
ধানে	-3367
▁অসু	-3368
▁কিংবা	-3369
▁খাদ্য	-3370
▁পৌঁছে	-3371
▁ভ্রমণ	-3372
▁সীমান্ত	-3373
▁ক্যাপ্টেন	-3374
ঠা	-3375
নু	-3376
সির	-3377
্রমে	-3378
▁তৃত	-3379
▁ধরন	-3380
▁ভূম	-3381
▁আব্দ	-3382
▁আসছি	-3383
▁উক্ত	-3384
▁করছো	-3385
▁নিউজ	-3386
▁মূলত	-3387
▁সহজে	-3388
ব্যাপী	-3389
▁গেছেন	-3390
▁ছোট্ট	-3391
▁টেক্স	-3392
▁দারুণ	-3393
▁চালানো	-3394
▁ফেলেছে	-3395
▁শিশুদের	-3396
▁প্রকাশের	-3397
▁বৈশিষ্ট্য	-3398
"।	-3399
us	-3400
ক্য	-3401
▁রহ	-3402
নাকে	-3403
ন্দি	-3404
ামার	-3405
▁আলি	-3406
▁খরচ	-3407
▁বলব	-3408
▁সকাল	-3409
▁স্টে	-3410
্যানিশ	-3411
▁আগস্ট	-3412
▁জেনার	-3413
▁পিছনে	-3414
▁লম্বা	-3415
▁ব্লগিং	-3416
▁মন্ত্রী	-3417
▁নিয়ন্ত্র	-3418
▁সার্ভারের	-3419
টক	-3420
িউ	-3421
ment	-3422
▁গতি	-3423
▁গর্	-3424
▁পিত	-3425
▁পের	-3426
▁সভা	-3427
ঙ্গাপ	-3428
▁ডিস্	-3429
▁ভূমি	-3430
্যান্ট	-3431
▁অ্যাল	-3432
▁করছিল	-3433
▁পোশাক	-3434
▁ব্যাক	-3435
▁এখানেই	-3436
▁টেলিভি	-3437
▁ফাইলের	-3438
▁বুদ্ধি	-3439
▁ব্যবহারকারীর	-3440
▁স্বয়ংক্রিয়	-3441
ুজ	-3442
নাগ	-3443
বোধ	-3444
▁(%	-3445
▁তর	-3446
▁যু	-3447
▁ইন্	-3448
▁জমা	-3449
▁বুক	-3450
▁হতো	-3451
টিজেন	-3452
▁একদল	-3453
▁মসজি	-3454
▁অত্যা	-3455
▁রেডিও	-3456
▁হৃদয়	-3457
▁সঙ্গীত	-3458
▁অস্ট্রে	-3459
▁আর্কাইভ	-3460
▁উইন্ডোর	-3461
▁মোহাম্মদ	-3462
▁নিষেধাজ্ঞা	-3463
াঁ	-3464
র্ন	-3465
▁আছো	-3466
▁বোধ	-3467
▁মিঃ	-3468
বিচার	-3469
স্তান	-3470
▁http	-3471
▁জটিল	-3472
▁ডায়	-3473
▁ফ্রি	-3474
▁বন্য	-3475
▁মারি	-3476
▁হবেন	-3477
▁ইনস্ট	-3478
▁ধরণের	-3479
▁বার্ন	-3480
▁লিখুন	-3481
▁নিবন্ধ	-3482
▁বন্দুক	-3483
▁সেন্সর	-3484
▁সেপ্টে	-3485
▁দাঁড়াও	-3486
▁বিষয়ের	-3487
▁মিডিয়ার	-3488
আল	-3489
ধর	-3490
ভিন	-3491
পাতা	-3492
পুরি	-3493
বহার	-3494
মূলক	-3495
শ্যক	-3496
▁চেক	-3497
▁ফুল	-3498
ত্যার	-3499
▁উইকি	-3500
▁দূর্	-3501
▁দেরি	-3502
ওয়ায়	-3503
▁নির্ম	-3504
▁যাচ্ছ	-3505
▁সম্ভা	-3506
▁উগান্ড	-3507
▁চিৎকার	-3508
▁জানতাম	-3509
▁চ্যানেল	-3510
▁নভেম্বর	-3511
▁ভিডিওটি	-3512
▁অভিযুক্ত	-3513
▁ডিসেম্বর	-3514
▁সন্বন্ধে	-3515
ay	-3516
ur	-3517
ুদ	-3518
পরি	-3519
বৃত	-3520
াক্	-3521
▁في	-3522
▁ডো	-3523
ঙ্গল	-3524
▁কাগ	-3525
▁শিখ	-3526
ওয়াজ	-3527
ন্দের	-3528
পন্থী	-3529
▁ভয়া	-3530
▁রাখো	-3531
পাতালে	-3532
▁নিচের	-3533
▁অদ্ভুত	-3534
▁কিছুটা	-3535
▁দেখানো	-3536
▁পশ্চিম	-3537
▁বিবৃতি	-3538
▁বিশ্লে	-3539
▁আদিবাসী	-3540
▁বিদ্যুৎ	-3541
▁স্বাগতম	-3542
▁কোম্পানি	-3543
▁প্রকল্পের	-3544
▁প্রতিনিধি	-3545
▁ব্যাপারটা	-3546
od	-3547
র্গ	-3548
শিত	-3549
▁জর	-3550
পাশে	-3551
▁الم	-3552
ওয়াই	-3553
রিয়া	-3554
▁কখনও	-3555
▁থাকি	-3556
▁বলুন	-3557
▁বোঝা	-3558
▁অপমান	-3559
▁করতাম	-3560
▁ভাগ্য	-3561
▁মিছিল	-3562
▁সংগ্র	-3563
▁অপেক্ষ	-3564
▁উপাসনা	-3565
▁তৃতীয়	-3566
▁বিরক্ত	-3567
▁চিকিৎসা	-3568
▁ডিজিটাল	-3569
▁বিদ্রোহ	-3570
▁ভিডিওতে	-3571
▁স্বেচ্ছ	-3572
▁প্রতিশ্রু	-3573
▁বিক্ষোভের	-3574
th	-3575
▁X	-3576
কোর	-3577
ঙ্খ	-3578
ফের	-3579
সংঘ	-3580
▁টো	-3581
▁তু	-3582
ওয়ে	-3583
গানি	-3584
বরাহ	-3585
সিসি	-3586
স্টা	-3587
রিক্ত	-3588
▁অত্য	-3589
▁ইম্প	-3590
▁ডাউন	-3591
▁অজানা	-3592
▁জ্বাল	-3593
▁পানির	-3594
▁ফেলুন	-3595
▁দুর্ঘট	-3596
▁পাতায়	-3597
▁প্রকৃত	-3598
▁সমাজের	-3599
▁ক্যাম্প	-3600
▁প্রান্ত	-3601
▁প্রশিক্ষ	-3602
▁লাইসেন্স	-3603
▁হাসপাতালে	-3604
▁ব্যবহারকারীরা	-3605
▁l	-3606
▁র‍	-3607
ঁড়ে	-3608
জায়	-3609
বলিক	-3610
স্বর	-3611
োর্ট	-3612
▁কৌশ	-3613
▁রুশ	-3614
যাত্র	-3615
ান্না	-3616
▁আটকে	-3617
▁ইতিম	-3618
▁এখনই	-3619
▁গর্ব	-3620
▁জেলে	-3621
▁তোকে	-3622
▁ভয়াবহ	-3623
▁রেখেছে	-3624
▁জাপানের	-3625
▁পুরোপুরি	-3626
▁নিষ্ক্রিয়	-3627
▁من	-3628
▁নৌ	-3629
▁তীব	-3630
▁বেন	-3631
▁রেড	-3632
▁শেখ	-3633
▁কাটা	-3634
▁জেনে	-3635
▁ভর্ত	-3636
▁কার্ড	-3637
▁জরুরী	-3638
▁জীবিত	-3639
▁নম্বর	-3640
▁বিশ্বে	-3641
▁ভূমিকা	-3642
▁যাত্রা	-3643
▁রেকর্ড	-3644
▁সরবরাহ	-3645
▁আলোচনার	-3646
▁সহায়তা	-3647
▁অবিশ্বাস	-3648
▁অর্থনীতি	-3649
▁ফেসবুকের	-3650
▁সম্ভাব্য	-3651
▁একটিভিস্ট	-3652
▁ফিলিস্তিনি	-3653
ংগ	-3654
দো	-3655
সো	-3656
েন	-3657
জাত	-3658
রাও	-3659
▁এখ	-3660
ইয়ে	-3661
▁কাট	-3662
▁কিন	-3663
▁কোড	-3664
▁চলা	-3665
▁সন্	-3666
ওয়ান	-3667
িয়ার	-3668
▁গভীর	-3669
▁ছাড়	-3670
▁টেনে	-3671
▁সোনা	-3672
▁স্কো	-3673
▁কখনোই	-3674
▁তীব্র	-3675
▁তুমিই	-3676
▁অপসারণ	-3677
▁লোকেরা	-3678
▁বিখ্যাত	-3679
▁বিন্যাস	-3680
▁কার্যক্রম	-3681
▁অনুষ্ঠানের	-3682
▁বিষয়বস্তু	-3683
qu	-3684
দূ	-3685
ধিক	-3686
ভের	-3687
▁to	-3688
▁কব	-3689
▁মজ	-3690
বন্দ	-3691
স্তা	-3692
ায়া	-3693
ীর্ণ	-3694
▁করল	-3695
▁জর্	-3696
▁বাগ	-3697
ড়ানো	-3698
ত্ত্ব	-3699
ায়ার	-3700
▁অভ্য	-3701
▁অসম্	-3702
▁খেতে	-3703
▁চলতে	-3704
▁চিঠি	-3705
▁ফন্ট	-3706
▁শয়ত	-3707
▁স্লো	-3708
▁আয়োজ	-3709
▁কারাদ	-3710
▁এনক্রি	-3711
▁পারেনি	-3712
▁বিদ্যাল	-3713
▁পরিবর্তে	-3714
▁পরিস্থিত	-3715
▁কর্মকর্তা	-3716
চন	-3717
ঢ়	-3718
▁K	-3719
শাল	-3720
▁রস	-3721
▁কৌত	-3722
▁বলল	-3723
▁শরণ	-3724
▁সরে	-3725
▁হিউ	-3726
দিনের	-3727
য়াতে	-3728
ারাভি	-3729
▁অভাব	-3730
▁অস্থ	-3731
▁গেছি	-3732
▁নেমে	-3733
▁ন্যা	-3734
▁প্লে	-3735
▁ফেরত	-3736
য়েন্ট	-3737
▁ক্লিক	-3738
▁নিজেই	-3739
▁ভোটার	-3740
▁আবশ্যক	-3741
▁পুরোনো	-3742
▁মুদ্রণ	-3743
▁হয়েছি	-3744
তন্ত্রের	-3745
▁বেশিরভাগ	-3746
▁ব্যক্তির	-3747
▁মেয়েদের	-3748
▁ক্ষতিগ্রস্ত	-3749
▁প্রয়োজনীয়	-3750
মাস	-3751
▁st	-3752
▁গর	-3753
াইটে	-3754
ৃদ্ধ	-3755
▁অনি	-3756
▁গোল	-3757
▁চীন	-3758
▁কণ্ঠ	-3759
▁কেটে	-3760
▁খেলো	-3761
▁গড়ে	-3762
▁ঘৃণা	-3763
▁জনাব	-3764
▁থামো	-3765
▁ধরার	-3766
▁মহাস	-3767
▁মোকা	-3768
▁সিসি	-3769
▁কাজটি	-3770
▁খেলার	-3771
▁ফেলার	-3772
ক্ষিপ্ত	-3773
▁বাহরাই	-3774
▁ব্যস্ত	-3775
▁স্কুলে	-3776
▁অত্যন্ত	-3777
▁ইজরায়ে	-3778
▁পোস্টটি	-3779
▁বিচারের	-3780
▁বার্তাটি	-3781
▁বেশীরভাগ	-3782
▁সপ্তাহের	-3783
▁সন্ত্রাসী	-3784
▁পরিস্থিতির	-3785
**	-3786
খী	-3787
ত্থ	-3788
পনা	-3789
পিত	-3790
শুর	-3791
্বাস	-3792
▁ঝুঁ	-3793
▁ঢুক	-3794
▁দেই	-3795
পুরুষ	-3796
য়নের	-3797
▁অকার	-3798
▁কলাম	-3799
▁পর্ব	-3800
▁প্রো	-3801
লিয়ান	-3802
▁আহমেদ	-3803
▁গ্যাস	-3804
▁ম্যান	-3805
▁আফগানি	-3806
▁বাসায়	-3807
▁জাতিসংঘ	-3808
▁সিঙ্গাপ	-3809
▁প্রচারাভি	-3810
▁J	-3811
▁ঋ	-3812
▁আও	-3813
থমিক	-3814
▁কোর	-3815
▁বাম	-3816
▁যুব	-3817
িউটার	-3818
▁ক্রে	-3819
▁চালা	-3820
▁বিভা	-3821
▁ভদ্র	-3822
জ্জ্বল	-3823
▁উৎসাহ	-3824
▁কিসের	-3825
▁জনতার	-3826
▁জানার	-3827
▁যাচাই	-3828
▁সেটাই	-3829
▁চাচ্ছি	-3830
▁প্রশাস	-3831
▁বিদায়	-3832
▁বিপর্য	-3833
▁উপস্থিতি	-3834
▁বিনিয়োগ	-3835
▁জানুয়ারি	-3836
▁প্রতিবাদের	-3837
id	-3838
ডস	-3839
ডেল	-3840
হান	-3841
টুকু	-3842
▁আউট	-3843
▁বাছ	-3844
▁সড়	-3845
▁সুই	-3846
ওয়াল	-3847
াকারী	-3848
▁ঈমান	-3849
▁গ্রী	-3850
▁কেননা	-3851
▁তুলনা	-3852
▁সাড়া	-3853
▁ব্যাংক	-3854
▁সম্মুখ	-3855
▁সেনাবা	-3856
▁ভিত্তিক	-3857
▁সংস্থার	-3858
নিঃসন্দেহ	-3859
▁অকার্যকর	-3860
▁অতিরিক্ত	-3861
▁সাহায্যে	-3862
▁প্রতিশ্রুতি	-3863
▁মন্ত্রণালয়	-3864
age	-3865
ংকং	-3866
তীত	-3867
শাস	-3868
ুনি	-3869
▁জগ	-3870
▁রঙ	-3871
আইভি	-3872
ন্টি	-3873
ফর্ম	-3874
ষ্ঠী	-3875
হারা	-3876
▁অপর	-3877
▁চির	-3878
▁পেন	-3879
▁বহন	-3880
▁শার	-3881
পক্ষে	-3882
ভাবনা	-3883
াইনের	-3884
▁গেলো	-3885
▁দিলে	-3886
▁দুটো	-3887
▁নিকট	-3888
▁পাশে	-3889
▁শরীর	-3890
▁সীমা	-3891
▁সৃষ্ট	-3892
▁উত্তেজ	-3893
▁বলেছিল	-3894
▁বিজয়ী	-3895
▁বিপ্লব	-3896
▁জেনারেল	-3897
▁ইম্পোর্ট	-3898
▁কোম্পানী	-3899
▁বিজ্ঞাপন	-3900
ck	-3901
লমান	-3902
▁কমে	-3903
▁মাহ	-3904
য়ারী	-3905
▁করেই	-3906
▁চোখে	-3907
▁চাইলে	-3908
▁ডেমোট	-3909
▁রাখবে	-3910
▁লিখতে	-3911
্রিয়ার	-3912
▁অন্যদের	-3913
▁চিন্তিত	-3914
▁পত্রিকা	-3915
▁সাধারণত	-3916
▁নির্যাতন	-3917
▁পর্যায়ে	-3918
▁কম্পিউটার	-3919
▁পর্যবেক্ষণ	-3920
▁পূর্ববর্তী	-3921
খো	-3922
মাল	-3923
▁৪০	-3924
ক্টর	-3925
জাতি	-3926
জীবী	-3927
ন্দা	-3928
স্টি	-3929
্যাং	-3930
▁ফরা	-3931
▁ফার	-3932
▁সেল	-3933
▁অর্ধ	-3934
▁কঠোর	-3935
▁কায়	-3936
▁বান্	-3937
▁মহান	-3938
▁মেমো	-3939
▁শাসক	-3940
▁২০০৮	-3941
ড়ান্ত	-3942
লিকেশন	-3943
▁আমায়	-3944
▁উঠেছে	-3945
▁এজন্য	-3946
▁ধরেছে	-3947
▁ধারনা	-3948
▁সেন্ট	-3949
প্রাপ্ত	-3950
▁বানানো	-3951
▁ভিডিওর	-3952
▁অক্টোবর	-3953
▁চালানোর	-3954
▁বিস্মিত	-3955
▁লুকিয়ে	-3956
▁সমর্থিত	-3957
▁পরিচালনা	-3958
▁স্বেচ্ছাসে	-3959
িল	-3960
▁r	-3961
ভাই	-3962
ভ্য	-3963
▁ডক	-3964
মন্ড	-3965
রাইন	-3966
▁ঘটা	-3967
▁যৌথ	-3968
ধানের	-3969
মাধ্য	-3970
রুদ্ধ	-3971
িন্দু	-3972
্যালি	-3973
▁এন্ড	-3974
▁জবাব	-3975
▁দারি	-3976
▁ফিল্	-3977
▁উন্নত	-3978
▁খুলুন	-3979
▁সৈন্য	-3980
িয়েটিভ	-3981
▁ছাড়াই	-3982
▁দুর্বল	-3983
▁ধর্মঘট	-3984
▁বাড়ির	-3985
▁অনুভূতি	-3986
▁ডাউনলোড	-3987
▁তালিকায়	-3988
▁জানাচ্ছেন	-3989
▁বিষয়টিকে	-3990
ار	-3991
ية	-3992
যা	-3993
ess	-3994
নকে	-3995
লেক	-3996
্রো	-3997
ন্দন	-3998
বরের	-3999
বাচক	-4000
বেলা	-4001
শনাল	-4002
▁আনু	-4003
▁উপে	-4004
▁বরা	-4005
চ্ছুক	-4006
মার্ক	-4007
েত্রে	-4008
▁ঘুরে	-4009
▁জাদু	-4010
▁জার্	-4011
▁দুঃখ	-4012
▁বয়ে	-4013
▁শোনা	-4014
ডিয়ান	-4015
▁ঈশ্বর	-4016
▁উৎপাদ	-4017
▁গোয়ে	-4018
▁সম্পদ	-4019
▁অন্যরা	-4020
▁পরীক্ষ	-4021
▁মানসিক	-4022
▁অত্যাচার	-4023
▁প্রাথমিক	-4024
▁কাভারেজের	-4025
▁বাংলাদেশে	-4026
▁বাচ্চাদের	-4027
▁ফেব্রুয়ারি	-4028
0}	-4029
ir	-4030
ঁদ	-4031
কী	-4032
াখ	-4033
{0}	-4034
জনে	-4035
▁২৩	-4036
কারে	-4037
জ্জা	-4038
▁অবত	-4039
▁চুল	-4040
▁ধরো	-4041
▁বেই	-4042
ছাড়া	-4043
বিধান	-4044
▁অপরি	-4045
▁অবাক	-4046
▁নামা	-4047
▁মিলে	-4048
▁হায়	-4049
ষ্ট্রে	-4050
▁এটিকে	-4051
▁তিনটি	-4052
▁নিন্দা	-4053
▁প্রাণী	-4054
▁মিয়ান	-4055
▁যেমনটা	-4056
▁হচ্ছেন	-4057
ান্ত্রিক	-4058
▁কর্মীরা	-4059
▁বেরিয়ে	-4060
▁ইজরায়েল	-4061
▁কর্মীদের	-4062
▁শীর্ষচরণ	-4063
▁ভেবেছিলাম	-4064
▁সংক্ষিপ্ত	-4065
▁বিশ্ববিদ্যালয়	-4066
কন	-4067
দল	-4068
ফিক	-4069
ভিস	-4070
ভেল	-4071
▁চর	-4072
▁নেপ	-4073
▁শুর	-4074
ন্দ্ব	-4075
▁আইএস	-4076
▁এক্ষ	-4077
▁খোদা	-4078
▁বাধা	-4079
▁রাজক	-4080
▁আর্মে	-4081
▁ছেলের	-4082
▁আওয়াজ	-4083
▁ওয়ার্	-4084
▁ঘন্টার	-4085
▁ছাড়াও	-4086
▁নিয়োগ	-4087
▁ব্যতীত	-4088
▁রিপোর্	-4089
▁এইচআইভি	-4090
▁করেছিলে	-4091
▁খেলোয়া	-4092
▁বিপ্লবের	-4093
▁চ্যালেঞ্জ	-4094
▁বিক্ষোভকারীদের	-4095
(_	-4096
পক	-4097
গরি	-4098
লাপ	-4099
সেল	-4100
▁মাত	-4101
▁লাখ	-4102
▁সোন	-4103
কিন্ত	-4104
কুয়ে	-4105
ত্যাগ	-4106
মারের	-4107
াপাশি	-4108
▁ট্রা	-4109
▁দুজন	-4110
▁বোকা	-4111
▁সেশন	-4112
▁উপরের	-4113
▁করিনি	-4114
▁ঘণ্টা	-4115
▁ত্যাগ	-4116
আল্লাহ্	-4117
ষ্ঠানিক	-4118
▁অফিসার	-4119
▁অসম্ভব	-4120
▁দেখাতে	-4121
▁অন্যায়	-4122
▁অসাধারণ	-4123
▁নেতৃত্ব	-4124
▁মুসলমান	-4125
▁কারাগারে	-4126
▁কারাদণ্ড	-4127
▁প্রত্যাখ	-4128
▁মানুষদের	-4129
▁রাজনীতিবিদ	-4130
ig	-4131
ات	-4132
লক	-4133
এটা	-4134
গাজ	-4135
র্ণ	-4136
▁নও	-4137
▁শূ	-4138
প্রে	-4139
লাতে	-4140
স্কো	-4141
ৃঙ্খ	-4142
▁চরম	-4143
▁মুর	-4144
▁সেন	-4145
র্কের	-4146
▁অংশী	-4147
▁অতএব	-4148
▁অপার	-4149
▁তাকা	-4150
▁ফ্যা	-4151
▁হংকং	-4152
omment	-4153
্যাম্প	-4154
▁কমন্স	-4155
▁ভারতে	-4156
▁সাইটে	-4157
▁ইংরেজী	-4158
▁প্রচুর	-4159
▁যতক্ষণ	-4160
▁সমাবেশ	-4161
▁সমুদ্র	-4162
▁উজ্জ্বল	-4163
▁আবিষ্কার	-4164
▁পাশাপাশি	-4165
▁প্রার্থী	-4166
▁বলেছিলেন	-4167
▁আন্দোলনের	-4168
▁ক্রিয়েটিভ	-4169
▁নিরাপত্তার	-4170
00	-4171
ধে	-4172
▁ح	-4173
রান	-4174
ষ্ণ	-4175
সেস	-4176
িরো	-4177
তারা	-4178
পনের	-4179
ভূমি	-4180
▁Hey	-4181
▁চিন	-4182
কালের	-4183
বাহিক	-4184
ষ্টির	-4185
▁আমিই	-4186
▁উপলব	-4187
▁একমত	-4188
▁কোটি	-4189
▁জনতা	-4190
▁দ্বি	-4191
▁মহিল	-4192
▁সাহস	-4193
▁আস্তে	-4194
▁দ্বীপ	-4195
▁পার্থ	-4196
▁শুক্র	-4197
▁শুরুর	-4198
▁ইচ্ছুক	-4199
▁দেশটিতে	-4200
▁পৃথিবীতে	-4201
▁বাড়িয়ে	-4202
▁রাশিয়ান	-4203
▁দৃষ্টিভঙ্গ	-4204
▁রাষ্ট্রীয়	-4205
▁কর্তৃপক্ষের	-4206
ue	-4207
▁ا	-4208
ion	-4209
ড্ড	-4210
তাল	-4211
মাদ	-4212
মেই	-4213
▁UR	-4214
ডারে	-4215
ত্তর	-4216
স্থল	-4217
▁কান	-4218
▁হেল	-4219
তাদের	-4220
াকাছি	-4221
▁কৌশল	-4222
▁জারি	-4223
▁জিতে	-4224
▁টাইম	-4225
▁পরিষ	-4226
▁মনোন	-4227
▁সবুজ	-4228
▁ম্যাক	-4229
▁নেয়ার	-4230
▁ফাইলটি	-4231
▁হাসপাত	-4232
▁হ্যারি	-4233
▁দারিদ্র	-4234
▁শ্রদ্ধা	-4235
▁সম্পাদন	-4236
▁সেন্টার	-4237
▁উন্মুক্ত	-4238
▁কাছাকাছি	-4239
▁প্রতিবেদ	-4240
▁কর্মকাণ্ড	-4241
DM	-4242
ve	-4243
ها	-4244
উল	-4245
!’’	-4246
হাই	-4247
াদু	-4248
▁আধ	-4249
▁ইশ	-4250
▁চূ	-4251
▁হব	-4252
বাহী	-4253
ুমার	-4254
ুম্ব	-4255
্তির	-4256
▁তাস	-4257
▁মেশ	-4258
হত্যা	-4259
েশনের	-4260
▁অংশে	-4261
▁আলোক	-4262
▁কিলো	-4263
▁জর্ড	-4264
▁বাণি	-4265
▁হস্ত	-4266
▁এয়ার	-4267
▁কলম্ব	-4268
▁দেবেন	-4269
▁প্লাগ	-4270
▁বয়সী	-4271
▁বিবাহ	-4272
▁মঙ্গল	-4273
▁যেকোন	-4274
▁সেদিন	-4275
▁পার্টি	-4276
▁প্রমান	-4277
▁সম্পাদনা	-4278
▁সম্মুখীন	-4279
▁প্রচারণার	-4280
▁রাষ্ট্রের	-4281
▁সম্পর্কিত	-4282
▁কনফিগারেশন	-4283
▁ব্যবহারকারীদের	-4284
ণে	-4285
তল	-4286
ৎস	-4287
ডেন	-4288
দ্দ	-4289
াদে	-4290
ামো	-4291
্নে	-4292
▁আছ	-4293
▁নন	-4294
▁নম	-4295
ত্রে	-4296
প্রা	-4297
▁আলব	-4298
▁খুজ	-4299
▁জিন	-4300
▁নাচ	-4301
▁সংক	-4302
▁সংয	-4303
▁সিন	-4304
▁সোম	-4305
বিত্র	-4306
▁ইত্য	-4307
▁কতটা	-4308
▁গার্	-4309
▁ঘটবে	-4310
▁পাঠা	-4311
▁বর্ষ	-4312
▁সমান	-4313
নিয়ান	-4314
▁কুয়ে	-4315
▁চাইতে	-4316
▁ভিয়ে	-4317
▁রাতের	-4318
চ্ছিলাম	-4319
▁অবশেষে	-4320
▁চালাতে	-4321
▁নাইজের	-4322
▁জানানোর	-4323
▁তাছাড়া	-4324
▁আক্রমণের	-4325
▁উল্লিখিত	-4326
▁দেখাচ্ছে	-4327
▁অনুষ্ঠানে	-4328
▁সত্যিকারের	-4329
▁প্রত্যাখ্যান	-4330
▁y	-4331
▁ك	-4332
▁ষ	-4333
কেন	-4334
ভাষ	-4335
মূল	-4336
্বা	-4337
্মা	-4338
▁be	-4339
ধারন	-4340
সম্প	-4341
স্কি	-4342
াদ্দ	-4343
▁জরি	-4344
▁মরে	-4345
স্টের	-4346
▁এ্যা	-4347
▁ত্রি	-4348
▁দেবো	-4349
▁পাথর	-4350
ানিয়া	-4351
▁বাছাই	-4352
Comment	-4353
ওয়্যার	-4354
বাদীদের	-4355
▁অনেকটা	-4356
▁অভিহিত	-4357
▁পাবলিক	-4358
▁প্রস্থ	-4359
▁মাইক্র	-4360
▁স্বল্প	-4361
▁তারপরেও	-4362
▁অস্তিত্ব	-4363
▁আফ্রিকান	-4364
▁পরিত্রাণ	-4365
▁প্রদেশের	-4366
▁খেলোয়াড়	-4367
▁ব্যক্তিদের	-4368
▁স্থানান্তর	-4369
لا	-4370
পী	-4371
ঃপর	-4372
য়র	-4373
▁ডু	-4374
ফারে	-4375
্ষিক	-4376
▁আসি	-4377
▁কির	-4378
▁জমি	-4379
▁পাগ	-4380
▁বাব	-4381
▁ভোগ	-4382
▁মাপ	-4383
▁মেই	-4384
▁হোম	-4385
ায়ের	-4386
▁করতো	-4387
▁প্রব	-4388
▁বাণী	-4389
▁বিলি	-4390
▁ভাষণ	-4391
▁শালা	-4392
য়ারের	-4393
▁অতঃপর	-4394
▁উপহার	-4395
▁গাজার	-4396
▁জড়িত	-4397
▁ঝুঁকি	-4398
▁অভিযান	-4399
▁একজনের	-4400
▁তোমায়	-4401
▁সনাক্ত	-4402
▁অবস্থার	-4403
▁অভিযোগে	-4404
▁মেয়েকে	-4405
▁রাস্তার	-4406
▁সরকারকে	-4407
▁ভালোবাসা	-4408
▁শিরোনামে	-4409
▁ইয়েমেনের	-4410
▁ব্যবস্থার	-4411
ex	-4412
nd	-4413
সল	-4414
▁س	-4415
এবং	-4416
ওপি	-4417
টেন	-4418
পুর	-4419
▁ছি	-4420
▁ঠা	-4421
খানা	-4422
ঞ্জে	-4423
ত্তি	-4424
স্তি	-4425
িকোর	-4426
্নের	-4427
্লিউ	-4428
▁ঘোষ	-4429
▁ছাপ	-4430
▁তাজ	-4431
▁শরী	-4432
খাস্ত	-4433
দানের	-4434
ষ্টার	-4435
▁ইঞ্জ	-4436
▁নেবে	-4437
▁ফেলো	-4438
▁বিবি	-4439
▁লিংক	-4440
▁সারি	-4441
▁হারা	-4442
ন্দ্রে	-4443
▁ইরানি	-4444
▁উদ্বি	-4445
▁জন্যই	-4446
▁জাতির	-4447
▁লিঙ্ক	-4448
▁আওতায়	-4449
▁জানিনা	-4450
▁মাত্রা	-4451
▁ম্যানে	-4452
▁সমকামী	-4453
▁করছিলাম	-4454
▁প্রায়শ	-4455
▁রাশিয়া	-4456
▁বিশেষজ্ঞ	-4457
▁বিশ্লেষণ	-4458
▁সম্ভাবনা	-4459
▁কেন্দ্রীয়	-4460
▁ইন্দোনেশিয়ার	-4461
oo	-4462
জব	-4463
▁3	-4464
কির	-4465
ঙ্ঘ	-4466
জির	-4467
টাস	-4468
ভিত	-4469
যদি	-4470
্টি	-4471
্যো	-4472
▁২২	-4473
গ্রী	-4474
ব্রা	-4475
াতের	-4476
ুনের	-4477
▁পুত	-4478
▁বংশ	-4479
▁ভবন	-4480
▁মিন	-4481
জেক্ট	-4482
▁ভেতর	-4483
বার্তা	-4484
ুমেন্ট	-4485
▁অ্যাপ	-4486
▁কার্ট	-4487
▁কিছুর	-4488
▁কুকুর	-4489
▁টাকার	-4490
▁মিশরে	-4491
▁মৌলিক	-4492
▁সমগ্র	-4493
▁অপরাধী	-4494
▁ধরেছেন	-4495
▁পরিসংখ	-4496
▁যুদ্ধে	-4497
ার্থীদের	-4498
▁একাউন্ট	-4499
▁গোপনীয়	-4500
▁পরিচালক	-4501
▁বন্ধুরা	-4502
▁মুক্তির	-4503
▁ব্যাক্তি	-4504
▁ভিত্তিতে	-4505
▁সেখানকার	-4506
টপ	-4507
বই	-4508
গিত	-4509
ঠাৎ	-4510
বিন	-4511
সেন	-4512
্বো	-4513
্মু	-4514
▁me	-4515
▁ঘি	-4516
য়াং	-4517
্দের	-4518
▁অলি	-4519
▁নিখ	-4520
▁পরম	-4521
▁পোষ	-4522
ীকৃতি	-4523
▁আবেগ	-4524
▁কাগজ	-4525
▁টার্	-4526
▁বলবো	-4527
▁বাঁধ	-4528
▁শর্ত	-4529
▁সাদা	-4530
▁হলাম	-4531
স্থাপন	-4532
▁এনেছে	-4533
▁ক্রমশ	-4534
▁দাঁড়	-4535
▁পড়বে	-4536
▁পার্ক	-4537
▁ইংরেজি	-4538
▁ইনস্টল	-4539
▁এসেছেন	-4540
▁খাওয়া	-4541
▁চরিত্র	-4542
▁লেগেছে	-4543
▁শুনেছি	-4544
▁স্বামী	-4545
▁নিয়মিত	-4546
▁বিস্ময়	-4547
▁মিনিটের	-4548
▁স্কুলের	-4549
▁অন্যদিকে	-4550
▁উদ্বিগ্ন	-4551
▁ক্যামেরা	-4552
▁বিতর্কিত	-4553
▁গোয়েন্দা	-4554
▁ভয়েসেসের	-4555
▁সাহায্যের	-4556
▁শান্তিপূর্ণ	-4557
চর	-4558
▁k	-4559
ate	-4560
বাগ	-4561
▁এফ	-4562
▁২১	-4563
আপনি	-4564
কেরা	-4565
শ্রম	-4566
ান্ট	-4567
▁গরম	-4568
▁জিত	-4569
▁ডিজ	-4570
▁তেহ	-4571
▁পেল	-4572
▁ফটো	-4573
▁মর্	-4574
▁রোব	-4575
▁সংশ	-4576
যুদ্ধ	-4577
হাসিক	-4578
ূর্তি	-4579
▁অজ্ঞ	-4580
▁আর্থ	-4581
▁কোনও	-4582
▁ক্লি	-4583
▁বেতন	-4584
▁ব্লক	-4585
▁ভঙ্গ	-4586
▁হঠাৎ	-4587
▁হতাশ	-4588
▁উপভোগ	-4589
▁ক্ষোভ	-4590
▁দোকান	-4591
▁ধর্ষণ	-4592
▁নেবার	-4593
▁পতাকা	-4594
▁বিতরণ	-4595
▁অনেকের	-4596
▁দেখলাম	-4597
▁প্রাপক	-4598
▁মায়ান	-4599
▁পোস্টের	-4600
▁স্থায়ী	-4601
▁ক্ষমতায়	-4602
▁নেটওয়ার্	-4603
▁প্রতিবাদে	-4604
▁ইন্টারনেটে	-4605
▁সেপ্টেম্বর	-4606
▁প্রচারাভিযান	-4607
VD	-4608
em	-4609
উস	-4610
▁/	-4611
▁Y	-4612
কেও	-4613
ুকর	-4614
্ধি	-4615
▁CD	-4616
▁sh	-4617
তনের	-4618
্রিম	-4619
▁তবু	-4620
▁বলছ	-4621
▁বৈষ	-4622
▁শীত	-4623
্যারে	-4624
▁করলো	-4625
▁বায়	-4626
তিক্রম	-4627
স্তানে	-4628
▁দারুন	-4629
▁দেখেছ	-4630
▁পুরনো	-4631
▁বললাম	-4632
▁ভালোই	-4633
▁মুবার	-4634
▁সাবেক	-4635
▁সোশ্য	-4636
▁অঞ্চলে	-4637
▁অ্যাপ্	-4638
▁আদালতে	-4639
▁ইয়র্ক	-4640
▁কল্পনা	-4641
▁টেক্সট	-4642
▁ফ্রান্	-4643
▁বাইরের	-4644
▁শব্দের	-4645
▁সাবধান	-4646
▁সেজন্য	-4647
▁বাসিন্দ	-4648
▁রয়েছেন	-4649
▁translat	-4650
▁আমন্ত্রণ	-4651
▁আর্জেন্ট	-4652
▁ধারাবাহিক	-4653
▁বিভ্রান্ত	-4654
▁স্প্যানিশ	-4655
▁পরিস্থিতিতে	-4656
ফু	-4657
বস	-4658
হী	-4659
২৫	-4660
▁)	-4661
▁=	-4662
▁it	-4663
▁নব	-4664
▁যো	-4665
▁২৬	-4666
)...	-4667
কাতে	-4668
চ্ছো	-4669
রালো	-4670
সঙ্গ	-4671
াতার	-4672
▁শাহ	-4673
▁অঙ্গ	-4674
▁আলবৎ	-4675
▁ক্ষু	-4676
▁খুজে	-4677
▁ঘিরে	-4678
▁বিগত	-4679
▁মূসা	-4680
▁গেলাম	-4681
▁আরেকটা	-4682
▁খেয়াল	-4683
▁চেয়েও	-4684
▁পবিত্র	-4685
▁পাল্টা	-4686
▁মধ্যেই	-4687
▁হচ্ছিল	-4688
▁জার্মান	-4689
▁পাঠকদের	-4690
▁পোস্টার	-4691
▁সোশ্যাল	-4692
▁ঐতিহাসিক	-4693
▁পার্থক্য	-4694
▁ডেমোটিক্স	-4695
▁ক্যালেন্ডার	-4696
ew	-4697
mb	-4698
কথ	-4699
▁ঔ	-4700
ইয়	-4701
টিশ	-4702
ফোন	-4703
লিন	-4704
াসি	-4705
েরী	-4706
▁th	-4707
▁ভী	-4708
দর্শ	-4709
ীকরণ	-4710
োপকথ	-4711
▁আশে	-4712
▁নোট	-4713
▁পরা	-4714
▁ভিউ	-4715
▁মাফ	-4716
▁যেত	-4717
▁সিং	-4718
চ্ছেদ	-4719
তাবাস	-4720
মিটার	-4721
▁দলটি	-4722
▁মালা	-4723
▁মোটে	-4724
▁হাসি	-4725
▁২০১৫	-4726
▁আকারে	-4727
▁জর্জি	-4728
▁ট্রেন	-4729
▁বাজার	-4730
▁বিবরণ	-4731
▁ভর্তি	-4732
▁লোককে	-4733
▁হাজির	-4734
▁আল্লাহ	-4735
▁কথোপকথ	-4736
▁জোরালো	-4737
▁পাচ্ছে	-4738
▁বিকল্প	-4739
▁বিভক্ত	-4740
▁সমৃদ্ধ	-4741
▁উপলব্ধি	-4742
▁কর্মসূচ	-4743
▁ট্র্যাক	-4744
▁নেওয়ার	-4745
▁পার্টির	-4746
▁ফিল্টার	-4747
▁বাণিজ্য	-4748
▁যাচ্ছেন	-4749
▁স্লোগান	-4750
তান্ত্রিক	-4751
▁কোরিয়ার	-4752
▁টেলিভিশন	-4753
▁মোকাবেলা	-4754
",	-4755
ee	-4756
pe	-4757
up	-4758
ওন	-4759
ওর	-4760
▁ق	-4761
ডাম	-4762
তাই	-4763
রকম	-4764
সান	-4765
▁নদ	-4766
▁মদ	-4767
▁২৮	-4768
কারি	-4769
ঙ্কর	-4770
জ্ঞা	-4771
▁কয়	-4772
▁দিত	-4773
▁পাব	-4774
▁বুল	-4775
▁মতই	-4776
▁যেই	-4777
তোমার	-4778
ধিকার	-4779
ষ্ঠীর	-4780
▁আনার	-4781
▁এসেছ	-4782
▁কাঁদ	-4783
▁চলবে	-4784
▁ডেকে	-4785
▁ডেভি	-4786
▁প্রণ	-4787
▁ফার্	-4788
▁মাংস	-4789
▁লাইভ	-4790
▁অফিসে	-4791
▁আহমাদ	-4792
▁করতেন	-4793
▁নীচের	-4794
▁ব্যাগ	-4795
▁ল্যাট	-4796
তিক্রমে	-4797
তোমাদের	-4798
▁এভাবেই	-4799
▁ওয়াদা	-4800
▁তুলেছে	-4801
▁মনোভাব	-4802
▁মায়ের	-4803
▁শুরুতে	-4804
▁ক্ষুদ্র	-4805
▁জন্মদিন	-4806
▁পারবেনা	-4807
▁ভিয়েতন	-4808
▁সংবাদের	-4809
▁পুনরুদ্ধ	-4810
▁পেয়েছেন	-4811
▁মেক্সিকো	-4812
▁সদস্যদের	-4813
▁পরিবর্তিত	-4814
▁প্রাকৃতিক	-4815
ang	-4816
ককে	-4817
বয়	-4818
রিত	-4819
▁কই	-4820
▁চু	-4821
▁ডঃ	-4822
ড়তে	-4823
দণ্ড	-4824
দাতা	-4825
ভায়	-4826
▁ইহু	-4827
▁থাই	-4828
▁পাও	-4829
▁যথা	-4830
▁১৯৮	-4831
ation	-4832
থিওপি	-4833
পেক্ষ	-4834
▁অনশন	-4835
▁টিকে	-4836
▁ড্রা	-4837
▁দৃঢ়	-4838
▁কাজাখ	-4839
▁চোখের	-4840
▁থেকেও	-4841
▁পুত্র	-4842
▁প্রেস	-4843
▁সমন্ব	-4844
▁হাঙ্গ	-4845
▁ইকুয়ে	-4846
▁এজেন্ট	-4847
▁চেহারা	-4848
▁প্যাকে	-4849
▁রান্না	-4850
▁লিখছেন	-4851
▁শিল্পী	-4852
▁স্ট্রি	-4853
▁ইত্যাদি	-4854
▁উপেক্ষা	-4855
▁চিন্তার	-4856
▁বন্ধুদের	-4857
▁শ্রমিকদের	-4858
▁স্বরাষ্ট্র	-4859
▁অনুসন্ধানের	-4860
)-	-4861
وا	-4862
১১	-4863
▁*	-4864
গতি	-4865
গিজ	-4866
লেস	-4867
শোর	-4868
▁أن	-4869
▁ঘা	-4870
▁৬০	-4871
আইএস	-4872
ক্ষন	-4873
ঙ্গো	-4874
ছনের	-4875
▁কতো	-4876
▁তাহ	-4877
▁নেন	-4878
▁বিচ	-4879
▁শনি	-4880
▁সাজ	-4881
বিরোধ	-4882
▁আবহা	-4883
▁ডাকা	-4884
▁পাল্	-4885
▁বানা	-4886
▁লন্ড	-4887
▁স্বৈ	-4888
▁স্যা	-4889
▁উদযাপ	-4890
▁গ্রাফ	-4891
▁ছবিতে	-4892
▁ড্রাই	-4893
▁দেখলে	-4894
▁নারীর	-4895
▁ফরাসী	-4896
▁ব্যয়	-4897
▁ভাড়া	-4898
▁মহাকা	-4899
▁মিশ্র	-4900
▁শার্ট	-4901
▁আগ্রহী	-4902
▁গবেষণা	-4903
▁ঘটনাটি	-4904
▁শয়তান	-4905
▁শ্রেণী	-4906
▁স্থগিত	-4907
▁এখানকার	-4908
▁বার্ষিক	-4909
▁সংগ্রাম	-4910
▁মরোক্কোর	-4911
▁মানচিত্র	-4912
▁লাইসেন্সের	-4913
se	-4914
তী	-4915
ধু	-4916
পণ	-4917
end	-4918
ent	-4919
ver	-4920
পির	-4921
ভাল	-4922
শাহ	-4923
▁তম	-4924
quot	-4925
ৃশ্য	-4926
▁and	-4927
▁কুই	-4928
▁নাক	-4929
▁পেজ	-4930
স্ত্র	-4931
ানায়	-4932
ান্ডা	-4933
্যারা	-4934
▁করুক	-4935
▁গুগল	-4936
▁জেগে	-4937
▁জোরে	-4938
▁পারছ	-4939
▁পালা	-4940
▁বেদন	-4941
▁ব্রে	-4942
▁জাপান	-4943
▁দেশটি	-4944
▁রাখুন	-4945
▁শ্রীল	-4946
▁সংঘাত	-4947
▁সমাজে	-4948
▁নারীরা	-4949
▁নিচ্ছে	-4950
▁পেরেছে	-4951
▁শিক্ষক	-4952
▁সংগঠিত	-4953
▁সার্বি	-4954
▁স্বচ্ছ	-4955
▁অংশীদার	-4956
▁অন্ধকার	-4957
▁একত্রিত	-4958
▁নেতাদের	-4959
▁পরিকল্প	-4960
▁প্রতিফল	-4961
▁প্রশংসা	-4962
▁মিস্টার	-4963
▁চূড়ান্ত	-4964
▁প্রতিবেশ	-4965
▁কেবলমাত্র	-4966
▁সেনাবাহিনী	-4967
ون	-4968
গন	-4969
বছ	-4970
উরি	-4971
এসএ	-4972
কেত	-4973
ঠিত	-4974
নিজ	-4975
▁ঘু	-4976
▁ভর	-4977
▁২৭	-4978
রাইট	-4979
▁অথচ	-4980
▁অবল	-4981
▁কলে	-4982
▁ঘুর	-4983
▁তুর	-4984
▁মাও	-4985
▁যেও	-4986
য়ানা	-4987
▁অধিক	-4988
▁আড্ড	-4989
▁আসেন	-4990
▁গাজা	-4991
▁ঘোষণ	-4992
▁জঙ্গ	-4993
▁জনগো	-4994
▁থাকব	-4995
▁মাদক	-4996
▁লগইন	-4997
▁হাতি	-4998
কিন্তু	-4999
সামরিক	-5000
াদায়ক	-5001
▁আপলোড	-5002
▁করেছো	-5003
▁আরেকজন	-5004
▁সমাপ্ত	-5005
▁অভ্যন্ত	-5006
▁উদ্ধৃতি	-5007
▁উপযুক্ত	-5008
▁কাউন্সি	-5009
▁খাবারের	-5010
▁তরুণদের	-5011
▁প্রকৃতি	-5012
▁আগামীকাল	-5013
▁বাস্তবতা	-5014
▁ভালোবাসি	-5015
▁অনুপস্থিত	-5016
▁নির্বাচনী	-5017
▁প্রশিক্ষণ	-5018
▁অনুমতিক্রমে	-5019
▁কর্মকর্তারা	-5020
▁বিশ্বব্যাপী	-5021
'-	-5022
SA	-5023
োদ	-5024
বর্	-5025
ব্দ	-5026
সিস	-5027
িকর	-5028
ীমা	-5029
▁চৌ	-5030
▁শৈ	-5031
কায়	-5032
মালা	-5033
ালাম	-5034
ুনিক	-5035
▁উপক	-5036
▁টুক	-5037
▁ভীত	-5038
▁মহা	-5039
▁আঁকা	-5040
▁আপডে	-5041
▁কেনো	-5042
▁নাটক	-5043
▁যেটি	-5044
▁শোনো	-5045
▁সোজা	-5046
বৃত্তি	-5047
▁আলজের	-5048
▁উন্মো	-5049
▁গানের	-5050
▁চলমান	-5051
▁থাকবো	-5052
▁প্লাট	-5053
▁বন্যা	-5054
▁মানের	-5055
াতন্ত্র	-5056
▁ইথিওপি	-5057
▁এসেছিল	-5058
▁ছুঁড়ে	-5059
▁পানীয়	-5060
▁সাইবার	-5061
▁ক্যামের	-5062
▁তাকিয়ে	-5063
▁তালিকার	-5064
▁প্রচণ্ড	-5065
▁বিভাগের	-5066
▁সচেতনতা	-5067
▁সাক্ষ্য	-5068
▁অভিনন্দন	-5069
▁উদ্বাস্ত	-5070
▁নিয়েছেন	-5071
▁প্রতিনিধ	-5072
▁সমর্থকরা	-5073
▁আনুষ্ঠানিক	-5074
▁উল্লেখযোগ্য	-5075
3$	-5076
ME	-5077
ডম	-5078
থক	-5079
যথ	-5080
হ্	-5081
ist	-5082
ome	-5083
পশন	-5084
পুট	-5085
ফাই	-5086
িতি	-5087
▁অল	-5088
▁পট	-5089
গতের	-5090
টারি	-5091
ফোর্	-5092
ফ্রে	-5093
রাতে	-5094
িনেজ	-5095
ৃষ্ট	-5096
▁you	-5097
▁অপহ	-5098
▁আরা	-5099
▁একক	-5100
▁ওঠে	-5101
▁ধাপ	-5102
▁পাক	-5103
▁বসো	-5104
▁বেদ	-5105
▁মরি	-5106
▁মাছ	-5107
▁রেল	-5108
▁সের	-5109
ঙ্গার	-5110
ধ্যেই	-5111
নিষ্ঠ	-5112
ম্বরে	-5113
রিদ্র	-5114
▁কানা	-5115
▁গন্ধ	-5116
▁চিনি	-5117
▁ছবিঃ	-5118
▁ঢুকে	-5119
▁তখনই	-5120
▁দোষী	-5121
▁পুরা	-5122
▁মোডে	-5123
▁সহ্য	-5124
▁ইরানে	-5125
▁ছুটির	-5126
▁ট্যাব	-5127
▁তিনজন	-5128
▁দিলাম	-5129
▁দেখবে	-5130
▁পাচার	-5131
▁পারলে	-5132
▁বলবেন	-5133
▁ভয়েস	-5134
▁রহস্য	-5135
▁হবেনা	-5136
ভিত্তিক	-5137
▁অসুস্থ	-5138
▁একজনকে	-5139
▁গাড়ির	-5140
▁বিপরীত	-5141
▁মেয়াদ	-5142
▁যেগুলো	-5143
▁সমালোচ	-5144
▁অপারেশন	-5145
▁কপিরাইট	-5146
▁কার্টুন	-5147
▁প্রাচীন	-5148
▁ভালবাসি	-5149
▁প্রভাবিত	-5150
▁প্রশ্নের	-5151
▁রূপান্তর	-5152
▁ম্যানেজার	-5153
▁গিয়েছিলাম	-5154
▁ন্যায়বিচার	-5155
▁প্রতিস্থাপন	-5156
▁মন্ত্রণালয়ের	-5157
গ্	-5158
োজ	-5159
▁ه	-5160
ard	-5161
জিন	-5162
হোক	-5163
▁ti	-5164
▁অদ	-5165
▁থি	-5166
▁ধৈ	-5167
জনার	-5168
দ্রা	-5169
ুদের	-5170
▁উত্	-5171
▁গ্ল	-5172
▁টান	-5173
▁ডাই	-5174
▁ধোঁ	-5175
▁মেল	-5176
▁রবি	-5177
▁লাফ	-5178
গরীয়	-5179
ামেলা	-5180
▁উল্ল	-5181
▁চাবি	-5182
▁তবুও	-5183
▁পিতা	-5184
▁লঙ্ঘ	-5185
্যাবলী	-5186
▁অক্ষর	-5187
▁অব্যা	-5188
▁ওয়াই	-5189
▁গাড়ী	-5190
▁গুপ্ত	-5191
▁দেখছে	-5192
▁বাঁধা	-5193
▁ব্রাউ	-5194
▁যাবেন	-5195
ডিয়ায়	-5196
ন্ত্রীর	-5197
স্কৃতিক	-5198
▁অর্ধেক	-5199
▁একাধিক	-5200
▁সর্বাধ	-5201
▁স্পর্শ	-5202
▁দিচ্ছেন	-5203
▁দুনিয়া	-5204
▁নেটিজেন	-5205
▁পশ্চিমা	-5206
▁সাবধানে	-5207
▁সার্ভিস	-5208
▁স্বনির্	-5209
▁হওয়ায়	-5210
▁ইতিমধ্যে	-5211
▁ক্যাম্বো	-5212
▁গণতন্ত্র	-5213
▁ছাত্রদের	-5214
▁টুইটারের	-5215
▁পত্রিকার	-5216
▁পর্যাপ্ত	-5217
▁প্রশান্ত	-5218
▁মধ্যেকার	-5219
▁নিম্নলিখিত	-5220
▁প্রতিযোগিতা	-5221
▁সাংবাদিকদের	-5222
▁প্রতিষ্ঠানের	-5223
ام	-5224
ইস	-5225
বক	-5226
১২	-5227
▁V	-5228
টাও	-5229
রীণ	-5230
শনে	-5231
াকু	-5232
মায়	-5233
োরের	-5234
্বিত	-5235
▁DVD	-5236
▁GDM	-5237
▁চাম	-5238
▁দলে	-5239
▁রাগ	-5240
▁হ্র	-5241
কালীন	-5242
চ্চার	-5243
টারের	-5244
বর্তন	-5245
যানের	-5246
সরকার	-5247
স্ট্র	-5248
▁এনকো	-5249
▁গোলা	-5250
▁ঘড়ি	-5251
▁পণ্য	-5252
▁পরাজ	-5253
▁পূরণ	-5254
▁পোষণ	-5255
▁মাইল	-5256
▁মেনু	-5257
▁স্টা	-5258
▁২০০৭	-5259
বিরোধী	-5260
য়ানের	-5261
▁আড়াল	-5262
▁করুণা	-5263
▁কাপড়	-5264
▁ডিভাই	-5265
▁তৈরির	-5266
▁বানান	-5267
▁স্যাম	-5268
▁ইউক্রে	-5269
▁কার্যক	-5270
▁গ্রামে	-5271
▁জলবায়	-5272
▁দরিদ্র	-5273
▁প্যালে	-5274
▁সিনেমা	-5275
▁ইকুয়েড	-5276
▁বাহরাইন	-5277
▁হামলায়	-5278
▁পুরষ্কার	-5279
▁ব্যবসায়	-5280
▁পাঠিয়েছে	-5281
▁ওয়েবসাইটে	-5282
▁মালয়েশিয়ার	-5283
ul	-5284
টল	-5285
”,	-5286
▁5	-5287
টিত	-5288
দাদ	-5289
ব্ব	-5290
মহি	-5291
▁GN	-5292
▁is	-5293
▁عل	-5294
▁ইম	-5295
▁রম	-5296
গুলা	-5297
তিনি	-5298
প্তি	-5299
য়িক	-5300
িন্স	-5301
্যাশ	-5302
▁উঁচ	-5303
▁কফি	-5304
▁গঠন	-5305
▁জোট	-5306
▁টিক	-5307
▁দ্য	-5308
▁রুপ	-5309
▁আরোপ	-5310
▁কেউই	-5311
▁ঘটছে	-5312
▁ছুটি	-5313
▁পাখি	-5314
▁মেরি	-5315
▁রাজি	-5316
▁অর্থে	-5317
▁অ্যাম	-5318
▁আরবের	-5319
▁করলেন	-5320
▁তাঁরই	-5321
▁মহাসা	-5322
▁রোমান	-5323
▁কমিয়ে	-5324
▁জাপানি	-5325
▁প্যারি	-5326
▁লেখায়	-5327
▁সংবাদে	-5328
▁সমর্থক	-5329
▁সামনের	-5330
▁আইনজীবী	-5331
▁এশিয়ার	-5332
▁বাঁচাতে	-5333
▁ভয়ঙ্কর	-5334
▁সমর্থনে	-5335
▁অধিকারের	-5336
▁কেন্দ্রে	-5337
▁দৃশ্যমান	-5338
▁এনক্রিপ্ট	-5339
▁কোম্পানির	-5340
▁জাতিসংঘের	-5341
▁বাহরাইনের	-5342
▁মেক্সিকোর	-5343
▁সম্প্রচার	-5344
▁ইন্টারন্যা	-5345
▁প্রজাতন্ত্র	-5346
ap	-5347
মর	-5348
ath	-5349
tin	-5350
ংকর	-5351
এটি	-5352
কতা	-5353
নেই	-5354
রেই	-5355
সমা	-5356
হের	-5357
▁on	-5358
▁ধু	-5359
▁পপ	-5360
ঙ্কা	-5361
ড়ির	-5362
াইভে	-5363
ুর্ত	-5364
▁আনে	-5365
▁এলে	-5366
▁কংগ	-5367
▁পয়	-5368
▁পেই	-5369
▁সির	-5370
জুয়ে	-5371
ধরনের	-5372
নিবেশ	-5373
▁আগেও	-5374
▁এমনি	-5375
▁কখনই	-5376
▁কুর্	-5377
▁গুজব	-5378
▁গ্যা	-5379
▁ফাঁস	-5380
▁ফ্লো	-5381
▁সড়ক	-5382
ঞ্চলিক	-5383
ধ্যায়	-5384
যন্ত্র	-5385
▁কামনা	-5386
▁ক্লাস	-5387
▁ডেস্ক	-5388
▁তিনিই	-5389
▁তোলার	-5390
▁ধৈর্য	-5391
▁মেশিন	-5392
▁লজ্জা	-5393
▁হোস্ট	-5394
▁কনফারে	-5395
▁কিরগিজ	-5396
▁জনগণকে	-5397
▁তথ্যের	-5398
▁দাড়াও	-5399
▁দেখেছে	-5400
▁পারিনি	-5401
▁মিষ্টি	-5402
▁সংসদের	-5403
▁সন্ধান	-5404
▁হত্যার	-5405
য়োজনীয়	-5406
▁আদালতের	-5407
▁ইসলামিক	-5408
▁দূতাবাস	-5409
▁পদত্যাগ	-5410
▁পরিশোধক	-5411
▁বিজ্ঞান	-5412
▁ব্রাদার	-5413
▁মাইক্রো	-5414
▁সৌভাগ্য	-5415
▁ফোল্ডারে	-5416
▁মুহূর্তে	-5417
▁যুক্তরাজ	-5418
▁লেবাননের	-5419
▁প্রতিষ্ঠিত	-5420
▁ইন্টারনেটের	-5421
▁থাইল্যান্ডের	-5422
ak	-5423
mp	-5424
উড	-5425
শত	-5426
সক	-5427
বরে	-5428
▁Mr	-5429
▁ঠে	-5430
ংসের	-5431
গ্রে	-5432
পারে	-5433
▁এলি	-5434
▁গাই	-5435
▁গুড	-5436
▁তাও	-5437
▁দিল	-5438
▁নীল	-5439
▁বাত	-5440
▁বিছ	-5441
▁বৃত	-5442
▁ভরে	-5443
▁সফট	-5444
▁১৯৭	-5445
তাহলে	-5446
শক্তি	-5447
িতায়	-5448
▁অতীত	-5449
▁চলুন	-5450
▁চীনে	-5451
▁ঢাকা	-5452
▁পৃথক	-5453
▁সুসং	-5454
▁হয়র	-5455
ব্যস্ত	-5456
স্থায়	-5457
▁আদর্শ	-5458
▁আফগান	-5459
▁কাতার	-5460
▁কৌতুক	-5461
▁পুনরা	-5462
▁মারতে	-5463
▁মোটেও	-5464
▁সমকাম	-5465
▁সাথেই	-5466
ব্যবহার	-5467
শিয়ায়	-5468
▁উদ্বেগ	-5469
▁কৃতজ্ঞ	-5470
▁পাঠাতে	-5471
▁পেরেছি	-5472
▁বইয়ের	-5473
▁বয়স্ক	-5474
▁বিয়ের	-5475
▁আঞ্চলিক	-5476
▁নির্মিত	-5477
▁বৃদ্ধির	-5478
▁কমিউনিটি	-5479
▁প্রত্যক্ষ	-5480
▁পুনরুদ্ধার	-5481
▁বেদনাদায়ক	-5482
▁মৃত্যুদণ্ড	-5483
▁মালয়েশিয়া	-5484
▁অ্যাপ্লিকেশন	-5485
▁প্রতিযোগিতার	-5486
▁বিক্ষোভকারীরা	-5487
।"	-5488
ষু	-5489
lin	-5490
ঁটে	-5491
পথে	-5492
বাজ	-5493
ম্ম	-5494
োটো	-5495
▁ঋণ	-5496
▁দম	-5497
▁বন	-5498
....	-5499
কোনো	-5500
ণ্ডা	-5501
বাসন	-5502
▁আসন	-5503
▁এজে	-5504
▁ঘুষ	-5505
▁পরো	-5506
▁বুধ	-5507
▁মাঠ	-5508
▁মোড	-5509
▁সুন	-5510
কর্মী	-5511
ছিয়ে	-5512
জুড়ে	-5513
ন্মের	-5514
প্রতি	-5515
বিহীন	-5516
লেবান	-5517
শমন্ড	-5518
▁ইয়ো	-5519
▁উঁচু	-5520
▁এটাও	-5521
▁ঠিকই	-5522
▁তাজা	-5523
▁দিবো	-5524
▁বেলা	-5525
▁ভক্ত	-5526
▁মনের	-5527
▁সকলে	-5528
▁সামি	-5529
ুক্তির	-5530
▁আবারো	-5531
▁ওবামা	-5532
▁কিশোর	-5533
▁ডেভিড	-5534
▁ত্রাণ	-5535
▁দোস্ত	-5536
▁পারছে	-5537
▁বজায়	-5538
▁বাতাস	-5539
▁যথাযথ	-5540
▁হাতের	-5541
▁আধুনিক	-5542
▁গুরুতর	-5543
▁পৃষ্ঠা	-5544
▁মাটিতে	-5545
▁মানবিক	-5546
▁যেভাবে	-5547
▁অপরাধের	-5548
▁অভিবাসী	-5549
▁কিছুদিন	-5550
▁দেখানোর	-5551
▁প্রেক্ষ	-5552
▁মেয়েরা	-5553
▁ল্যাটিন	-5554
▁শিক্ষার	-5555
▁সাক্ষাৎ	-5556
▁অস্থায়ী	-5557
▁পরিবারকে	-5558
▁সংঘর্ষের	-5559
▁দিয়েছিলাম	-5560
▁সাংস্কৃতিক	-5561
▁তিউনিশিয়ার	-5562
▁অংশগ্রহণকারীদের	-5563
"-	-5564
/%	-5565
ry	-5566
ort	-5567
টোগ	-5568
তান	-5569
তেও	-5570
দেহ	-5571
নেট	-5572
পেন	-5573
শিং	-5574
শিপ	-5575
ষুধ	-5576
সকে	-5577
▁আচ	-5578
▁ছো	-5579
▁নগ	-5580
ংকের	-5581
চারী	-5582
▁ইভে	-5583
▁তাপ	-5584
▁পশু	-5585
ঙ্কিত	-5586
নাগাদ	-5587
র্জনা	-5588
স্কের	-5589
াক্কা	-5590
▁ইসরা	-5591
▁পরেও	-5592
▁পেলে	-5593
▁বাকী	-5594
▁রূপে	-5595
▁সাফল	-5596
▁সেসব	-5597
ড়ানোর	-5598
ম্বরের	-5599
্লিষ্ট	-5600
▁আহবান	-5601
▁খবরের	-5602
▁খানিক	-5603
▁তাকাও	-5604
▁পড়ছে	-5605
▁পাতার	-5606
▁পাবার	-5607
▁প্রফে	-5608
▁বাংলা	-5609
▁শারীর	-5610
▁সংশোধ	-5611
▁হয়না	-5612
ত্যাশিত	-5613
▁উৎসবের	-5614
▁ক্যান্	-5615
▁গোষ্ঠী	-5616
▁ঝামেলা	-5617
▁বাবাকে	-5618
▁স্টেশন	-5619
▁ইয়েমেন	-5620
▁গ্রামের	-5621
▁বিনিময়	-5622
▁বিপদজনক	-5623
▁আলোচনায়	-5624
▁কর্মসূচী	-5625
▁ব্রাউজার	-5626
▁শুক্রবার	-5627
▁সর্বাধিক	-5628
▁হালনাগাদ	-5629
▁ওয়ার্ল্ড	-5630
▁প্রস্তুতি	-5631
▁সংবাদপত্রের	-5632
▁অপ্রয়োজনীয়	-5633
▁কর্মকর্তাদের	-5634
▁বৈশিষ্ট্যাবলী	-5635
-1	-5636
হর	-5637
▁e	-5638
ada	-5639
ill	-5640
ঁকে	-5641
ংকা	-5642
ণীর	-5643
নিং	-5644
প্প	-5645
ভির	-5646
ভিল	-5647
ভেন	-5648
মুদ	-5649
র্ঘ	-5650
স্র	-5651
হতি	-5652
▁ঈদ	-5653
▁নর	-5654
▁বী	-5655
▁রই	-5656
▁৯০	-5657
▁“%	-5658
আমের	-5659
াকের	-5660
ামূল	-5661
ার্ম	-5662
াল্ড	-5663
▁চতু	-5664
▁তীর	-5665
কেটের	-5666
িক্ষে	-5667
▁আইটে	-5668
▁ওষুধ	-5669
▁পুনঃ	-5670
▁মন্দ	-5671
▁যত্ন	-5672
▁লর্ড	-5673
▁সাজা	-5674
▁স্টি	-5675
্রিপ্ট	-5676
▁ইব্রা	-5677
▁চাকরি	-5678
▁দুইজন	-5679
▁ধারার	-5680
▁নিষ্ঠ	-5681
▁পর্দা	-5682
▁পুনর্	-5683
▁বিপুল	-5684
▁সংসদে	-5685
▁সার্ব	-5686
▁হচ্ছি	-5687
▁হাসান	-5688
▁অলিম্প	-5689
▁ইউটিউব	-5690
▁ক্রিসম	-5691
▁খুঁজতে	-5692
▁জাপানে	-5693
▁ধর্মের	-5694
▁পারলাম	-5695
▁পাল্টে	-5696
▁বরাদ্দ	-5697
▁বেইজিং	-5698
▁লাইব্র	-5699
▁শক্তির	-5700
▁আবর্জনা	-5701
▁ইতিবাচক	-5702
▁দুর্যোগ	-5703
▁নিদর্শন	-5704
▁বলেছিলে	-5705
▁যন্ত্রণ	-5706
▁শারীরিক	-5707
▁ড্রাইভার	-5708
▁বাচ্চারা	-5709
▁অপেক্ষায়	-5710
▁আমেরিকায়	-5711
▁ইজরায়েলি	-5712
▁প্রেক্ষাপ	-5713
▁ব্রাদারহু	-5714
▁চেয়েছিলাম	-5715
▁নির্যাতনের	-5716
▁পরিসংখ্যান	-5717
▁অপ্রত্যাশিত	-5718
ce	-5719
ld	-5720
os	-5721
اب	-5722
ير	-5723
ধন	-5724
বন	-5725
৫০	-5726
উয়	-5727
মিশ	-5728
শান	-5729
সিন	-5730
াইব	-5731
▁এট	-5732
▁ধন	-5733
▁৮০	-5734
য়েন	-5735
স্বা	-5736
াত্ত	-5737
েশনে	-5738
▁%3$	-5739
▁কসম	-5740
▁খাই	-5741
▁গুণ	-5742
▁জাল	-5743
▁জেই	-5744
▁দোক	-5745
▁ধুর	-5746
▁ভূত	-5747
▁ভ্র	-5748
▁সেট	-5749
িকাংশ	-5750
▁আশ্চ	-5751
▁কন্ট	-5752
▁খোলো	-5753
▁চক্র	-5754
▁পোর্	-5755
▁বাজি	-5756
▁ভার্	-5757
▁মডেল	-5758
▁মর্য	-5759
▁মাকে	-5760
োভিয়ে	-5761
▁আপডেট	-5762
▁আবারও	-5763
▁ইচ্ছে	-5764
▁ইয়াহ	-5765
▁জন্যও	-5766
▁নৈতিক	-5767
▁মিথ্য	-5768
▁রাজ্য	-5769
▁লিঙ্গ	-5770
▁সকলের	-5771
▁সীমিত	-5772
▁সুপার	-5773
▁হিসেব	-5774
দুল্লাহ	-5775
▁অনুমান	-5776
▁উন্নতি	-5777
▁উৎপাদন	-5778
▁নিক্ষে	-5779
▁ফেলেছি	-5780
▁ভয়ংকর	-5781
▁শাসনের	-5782
▁এড়িয়ে	-5783
▁খানিকটা	-5784
▁গন্তব্য	-5785
▁নিয়েছি	-5786
▁প্রক্সি	-5787
▁শাস্তির	-5788
▁সহিংসতা	-5789
▁সাময়িক	-5790
▁হয়তোবা	-5791
▁কণ্ঠস্বর	-5792
▁কয়েকদিন	-5793
▁বিশ্বকাপ	-5794
▁হিউম্যান	-5795
▁পরবর্তীতে	-5796
▁প্রাকদর্শন	-5797
▁د	-5798
out	-5799
ter	-5800
tle	-5801
কাম	-5802
দূর	-5803
বিত	-5804
লিল	-5805
সেফ	-5806
সোস	-5807
াড়	-5808
োজন	-5809
▁ঢো	-5810
▁নক	-5811
▁বৌ	-5812
▁লী	-5813
▁সত	-5814
▁৭০	-5815
পীড়	-5816
মার্	-5817
সিটি	-5818
স্কে	-5819
োর্স	-5820
▁Can	-5821
▁ঝড়	-5822
▁টিম	-5823
▁নদী	-5824
▁নিও	-5825
▁ফরম	-5826
▁ফেই	-5827
▁বীর	-5828
পাশের	-5829
াপ্তি	-5830
▁এখনি	-5831
▁দলকে	-5832
▁পাবো	-5833
▁স্তর	-5834
বাসীরা	-5835
লিয়ার	-5836
হত্যার	-5837
াইয়ের	-5838
▁করায়	-5839
▁ক্রমা	-5840
▁পেলাম	-5841
▁ফাইলে	-5842
▁মস্কো	-5843
▁মারার	-5844
▁রাইটস	-5845
▁হিসাব	-5846
▁অ্যানি	-5847
▁চালায়	-5848
▁ফায়ার	-5849
▁বিচারক	-5850
▁বিভাগে	-5851
▁মামলার	-5852
▁মাহমুদ	-5853
▁সাধারন	-5854
ক্ষেত্রে	-5855
্রিয়ায়	-5856
▁অধিকাংশ	-5857
▁কারাগার	-5858
▁ক্লান্ত	-5859
▁খাওয়ার	-5860
▁চারপাশে	-5861
▁জড়িয়ে	-5862
▁পছন্দের	-5863
▁প্রেরিত	-5864
▁বিনামূল	-5865
▁ভালবাসা	-5866
▁অবস্থানে	-5867
▁আবহাওয়া	-5868
▁উত্তেজনা	-5869
▁কারাবন্দ	-5870
▁নাগরিকের	-5871
▁বিতর্কের	-5872
▁শরণার্থী	-5873
▁সংরক্ষিত	-5874
▁আহমাদিনেজ	-5875
▁প্রবন্ধটি	-5876
▁প্লাটফর্ম	-5877
▁সংশ্লিষ্ট	-5878
▁সংস্কৃতির	-5879
▁রাষ্ট্রপতির	-5880
ah	-5881
if	-5882
هم	-5883
অব	-5884
ঘা	-5885
চল	-5886
চো	-5887
ছন	-5888
পদ	-5889
পূ	-5890
রস	-5891
ুস	-5892
▁0	-5893
▁إ	-5894
থের	-5895
সেজ	-5896
▁৩১	-5897
ener	-5898
দানি	-5899
ব্লগ	-5900
র্কে	-5901
ুব্ধ	-5902
▁ডিস	-5903
▁দমন	-5904
▁দাস	-5905
▁পিপ	-5906
▁সুপ	-5907
▁হরত	-5908
উন্টে	-5909
কিছুর	-5910
প্রাচ	-5911
বার্ট	-5912
▁অফিস	-5913
▁ইউসু	-5914
▁ইঙ্গ	-5915
▁তেহর	-5916
▁নিরী	-5917
▁পরেই	-5918
▁পিতৃ	-5919
▁বাহি	-5920
▁মঞ্চ	-5921
▁রুমে	-5922
▁ল্যা	-5923
▁সঙ্ক	-5924
▁সিটি	-5925
▁সুখী	-5926
নাগরিক	-5927
স্পষ্ট	-5928
ান্ডার	-5929
াব্লিউ	-5930
্যানের	-5931
▁কাজটা	-5932
▁খুলতে	-5933
▁থামাও	-5934
▁নীতির	-5935
▁বিনিম	-5936
▁মসজিদ	-5937
▁যেদিন	-5938
▁লিখেন	-5939
▁সালেহ	-5940
▁Canada	-5941
▁দাবিতে	-5942
▁পরাজিত	-5943
▁পাহাড়	-5944
▁বন্ধুর	-5945
▁বাজারে	-5946
▁বানাতে	-5947
▁সংঘটিত	-5948
▁আত্মীয়	-5949
▁ক্রিকেট	-5950
▁ছবিগুলো	-5951
▁জলবায়ু	-5952
▁দেখেছেন	-5953
▁নিবন্ধন	-5954
▁পাঠানোর	-5955
▁প্যাকেজ	-5956
▁যুক্তরা	-5957
▁সমাপ্তি	-5958
▁দুনিয়ার	-5959
▁প্রস্থান	-5960
▁ভবিষ্যতের	-5961
▁ঐতিহ্যবাহী	-5962
▁ব্যক্তিত্ব	-5963
▁গণতান্ত্রিক	-5964
▁চলচ্চিত্রের	-5965
▁অস্ট্রেলিয়া	-5966
▁প্রতিক্রিয়ার	-5967
,"	-5968
SL	-5969
ag	-5970
অন	-5971
আজ	-5972
ঝো	-5973
হল	-5974
all	-5975
গাল	-5976
গ্ধ	-5977
চাল	-5978
জিও	-5979
ট্ট	-5980
মবা	-5981
রাট	-5982
াইজ	-5983
েকো	-5984
োঁজ	-5985
▁উল	-5986
▁ওস	-5987
▁ডট	-5988
▁তহ	-5989
▁লক	-5990
ount	-5991
এনসি	-5992
হ্যা	-5993
ায়ন	-5994
ুলেট	-5995
▁অফল	-5996
▁জের	-5997
▁পলি	-5998
▁মুল	-5999
▁৫০০	-6000
সিয়া	-6001
▁আজার	-6002
▁ইচ্ছ	-6003
▁ইরাক	-6004
▁কোর্	-6005
▁গর্ভ	-6006
▁গ্রা	-6007
▁ঘটতে	-6008
▁জড়ো	-6009
▁ট্রি	-6010
▁বৃহৎ	-6011
ওয়ালা	-6012
চিত্রে	-6013
সরকারী	-6014
▁আইটেম	-6015
▁ওয়েল	-6016
▁কিনতে	-6017
▁খুনের	-6018
▁গায়ে	-6019
▁গোত্র	-6020
▁চলেছে	-6021
▁চাইছি	-6022
▁তাইনা	-6023
▁পিটার	-6024
▁প্যাট	-6025
▁প্রাস	-6026
▁বোর্ড	-6027
▁ব্যবস	-6028
▁ভাবতে	-6029
▁সাহসী	-6030
▁স্বৈর	-6031
▁অজ্ঞাত	-6032
▁অন্যের	-6033
▁আলোচিত	-6034
▁ইঙ্গিত	-6035
▁ইভেন্ট	-6036
▁উপাস্য	-6037
▁কাঠামো	-6038
▁ছেলেকে	-6039
▁ডিস্কে	-6040
▁থামাতে	-6041
▁দেখায়	-6042
▁পারতাম	-6043
▁বন্যার	-6044
▁বাহিরে	-6045
▁মন্ত্র	-6046
▁মাইকেল	-6047
▁যাবেনা	-6048
▁স্ক্রী	-6049
মন্ত্রীর	-6050
▁ইউটিউবে	-6051
▁ওয়াশিং	-6052
▁কাটিয়ে	-6053
▁ক্রমাগত	-6054
▁ক্ষমতার	-6055
▁বিশ্রাম	-6056
▁মাস্টার	-6057
▁বিশ্বস্ত	-6058
▁বুকমার্ক	-6059
▁ব্যাবহার	-6060
▁হয়েছিলো	-6061
▁দুর্ভাগ্য	-6062
▁প্রতিবন্ধ	-6063
▁সমর্থকদের	-6064
▁দিয়েছিলেন	-6065
▁প্রতিবেদনে	-6066
▁প্রতিনিধিত্ব	-6067
nu	-6068
আন	-6069
তঃ	-6070
োম	-6071
ear	-6072
ংরা	-6073
গেট	-6074
টুই	-6075
ডকা	-6076
থান	-6077
থিত	-6078
থির	-6079
সেট	-6080
হাত	-6081
োতে	-6082
▁অশ	-6083
▁নু	-6084
কেটে	-6085
গেরি	-6086
ড়বে	-6087
ডিয়	-6088
ত্তম	-6089
ফাইল	-6090
াকাল	-6091
াদিন	-6092
াময়	-6093
্যুত	-6094
▁URL	-6095
▁আবু	-6096
▁আলে	-6097
▁খনি	-6098
▁গেম	-6099
▁দিও	-6100
▁ধনী	-6101
▁নিঃ	-6102
▁শোক	-6103
বোর্ড	-6104
মহিলা	-6105
মুক্ত	-6106
য়াইন	-6107
য়ানক	-6108
▁উগ্র	-6109
▁কর্প	-6110
▁ক্রী	-6111
▁খ্রি	-6112
▁টাইপ	-6113
▁নদীর	-6114
▁প্রহ	-6115
▁ভাগা	-6116
▁ভীতি	-6117
▁রসূল	-6118
▁সবচে	-6119
▁স্পে	-6120
▁হিরো	-6121
তাবাদী	-6122
্যাঙ্ক	-6123
▁অপহরণ	-6124
▁কমিটি	-6125
▁ক্লাব	-6126
▁ড্রোন	-6127
▁তারাও	-6128
▁তুলতে	-6129
▁মুম্ব	-6130
▁রোগের	-6131
▁সূচনা	-6132
▁সূর্য	-6133
ইয়েমেন	-6134
োভিয়েত	-6135
▁অনুপ্র	-6136
▁একাত্ম	-6137
▁ওবামার	-6138
▁খেলায়	-6139
▁চাচ্ছে	-6140
▁চেয়ার	-6141
▁জাদুকর	-6142
▁পেয়েছ	-6143
▁বাড়ছে	-6144
▁সহযোগী	-6145
▁সিরীয়	-6146
▁স্ট্যা	-6147
▁ঈশ্বরের	-6148
▁ট্রান্স	-6149
▁প্রফেসর	-6150
▁রাজকীয়	-6151
▁অভিযোগের	-6152
▁কেনিয়ার	-6153
▁জানাচ্ছি	-6154
▁প্রতিশোধ	-6155
▁বাসিন্দা	-6156
▁সহযোগিতা	-6157
▁সীমাবদ্ধ	-6158
▁স্বীকৃতি	-6159
▁হাসপাতাল	-6160
▁আবদুল্লাহ	-6161
▁কিলোমিটার	-6162
▁ব্যক্তিকে	-6163
▁মিডিয়ায়	-6164
"?	-6165
ug	-6166
ww	-6167
نا	-6168
১০	-6169
are	-6170
org	-6171
জুর	-6172
ঞ্ছ	-6173
বছর	-6174
২০০	-6175
▁খস	-6176
▁ধূ	-6177
▁যথ	-6178
▁লং	-6179
edit	-6180
নিয়	-6181
লীয়	-6182
▁আগু	-6183
▁আলী	-6184
▁ওহ্	-6185
▁খান	-6186
▁গুন	-6187
▁জার	-6188
▁ডেই	-6189
▁দাল	-6190
▁দিই	-6191
▁নীর	-6192
▁বাচ	-6193
▁ভুট	-6194
▁লাশ	-6195
▁শপথ	-6196
বাড়ি	-6197
ভূমির	-6198
শীলতা	-6199
স্তুর	-6200
▁কাকে	-6201
▁ঘরের	-6202
▁তোলে	-6203
▁পঞ্চ	-6204
▁বলেছ	-6205
▁শোভা	-6206
▁হলেন	-6207
▁হোটে	-6208
মাণবিক	-6209
▁আঙ্গু	-6210
▁গাছের	-6211
▁গ্রহন	-6212
▁জানাই	-6213
▁দুর্দ	-6214
▁দৈনিক	-6215
▁পরিবহ	-6216
▁পাঠাও	-6217
▁বয়সে	-6218
▁মাথার	-6219
▁সুন্দ	-6220
▁সৈনিক	-6221
▁ইঞ্জিন	-6222
▁ক্যারি	-6223
▁ডলারের	-6224
▁ডিভাইস	-6225
▁ধাক্কা	-6226
▁নিখোঁজ	-6227
▁ভয়ানক	-6228
▁সবগুলো	-6229
▁স্থায়	-6230
▁চুক্তির	-6231
▁তুলনায়	-6232
▁স্ক্রিন	-6233
▁আইএসআইএস	-6234
▁উগান্ডার	-6235
▁উল্লেখ্য	-6236
▁ঠিকানাবই	-6237
▁পুড়িয়ে	-6238
▁বিপর্যয়	-6239
▁ভবিষ্যতে	-6240
▁সুরক্ষিত	-6241
▁আত্মহত্যা	-6242
▁দুর্নীতির	-6243
▁বিস্ময়কর	-6244
▁ব্যাপারটি	-6245
▁হারিয়েছে	-6246
▁যুক্তরাষ্ট্রে	-6247
-8	-6248
لي	-6249
ফর	-6250
সই	-6251
োষ	-6252
▁<	-6253
▁’	-6254
ail	-6255
গোর	-6256
ছিস	-6257
বেত	-6258
ুতে	-6259
▁LD	-6260
▁re	-6261
ংকার	-6262
গ্রি	-6263
তিকর	-6264
প্লে	-6265
বহুল	-6266
বার্	-6267
শোনা	-6268
েত্র	-6269
▁অজু	-6270
▁অটো	-6271
▁কনস	-6272
▁জগৎ	-6273
▁তুষ	-6274
▁মেঘ	-6275
▁হাহ	-6276
▁হোন	-6277
গ্রহণ	-6278
বস্থা	-6279
বিভাগ	-6280
ীরূপে	-6281
▁আরবী	-6282
▁এইতো	-6283
▁খোঁজ	-6284
▁টেবি	-6285
▁দৌড়	-6286
▁নিবে	-6287
▁পাইল	-6288
▁বিরত	-6289
▁রঙের	-6290
▁রপ্ত	-6291
▁লেখে	-6292
▁শার্	-6293
মাধ্যম	-6294
স্বরূপ	-6295
▁অংশের	-6296
▁অবদান	-6297
▁অবরোধ	-6298
▁অ্যাড	-6299
▁আড্ডা	-6300
▁আত্মা	-6301
▁আদায়	-6302
▁ওয়ান	-6303
▁খসড়া	-6304
▁গাদ্দ	-6305
▁গার্ড	-6306
▁টেবিল	-6307
▁থাকতো	-6308
▁দিনটি	-6309
▁দেশকে	-6310
▁প্রেম	-6311
▁বলিভি	-6312
▁বিধান	-6313
▁বৃত্ত	-6314
▁বোতাম	-6315
▁বৌদ্ধ	-6316
▁ভবনের	-6317
▁ভিক্ষ	-6318
▁লেবেল	-6319
▁সহজেই	-6320
▁স্টার	-6321
▁অনুমোদ	-6322
▁কমিটির	-6323
▁তাজিকি	-6324
▁নিপীড়	-6325
▁নির্মম	-6326
▁পারছেন	-6327
▁বারবার	-6328
▁বিপদের	-6329
▁বৈষম্য	-6330
▁বোঝাতে	-6331
▁রাখবেন	-6332
▁শিশুরা	-6333
▁সর্বদা	-6334
▁অবতীর্ণ	-6335
▁অব্যাহত	-6336
▁ইউনিয়ন	-6337
▁ওয়ার্ক	-6338
▁গুয়াতে	-6339
▁তদন্তের	-6340
▁নিক্ষেপ	-6341
▁প্রদত্ত	-6342
▁বিশ্বকে	-6343
▁যাচ্ছিল	-6344
▁শ্রেষ্ঠ	-6345
▁সিটিজেন	-6346
▁হ্যান্ড	-6347
▁দুর্ঘটনা	-6348
▁প্রতিদ্ব	-6349
▁মহিলাদের	-6350
▁জানুয়ারী	-6351
▁পিতৃপুরুষ	-6352
▁ব্রাজিলের	-6353
▁মোহাম্মাদ	-6354
▁পেয়েছিলাম	-6355
▁মহাসাগরীয়	-6356
▁পুনরাবৃত্তি	-6357
▁ব্যবস্থাপনা	-6358
▁প্রতিবাদকারী	-6359
ct	-6360
eg	-6361
ــ	-6362
গী	-6363
ঘর	-6364
ফো	-6365
লন	-6366
ষক	-6367
১৫	-6368
৩০	-6369
rue	-6370
ype	-6371
প্ল	-6372
ফ্র	-6373
ভান	-6374
রাত	-6375
ষ্প	-6376
হয়	-6377
াবে	-6378
▁IM	-6379
▁অক	-6380
▁থে	-6381
তালি	-6382
প্তর	-6383
যেমন	-6384
র্কি	-6385
হায়	-6386
ুলের	-6387
▁অবা	-6388
▁আনো	-6389
▁চোর	-6390
▁টার	-6391
▁নকল	-6392
▁নেব	-6393
▁ফরে	-6394
▁যুগ	-6395
▁লেন	-6396
ঙ্কার	-6397
জ্জনক	-6398
দাদের	-6399
নিম্ন	-6400
স্থলে	-6401
্যারো	-6402
▁LDAP	-6403
▁উঠতে	-6404
▁ক্ষত	-6405
▁থাকত	-6406
▁প্রস	-6407
▁মতোই	-6408
▁মোটা	-6409
▁লোকে	-6410
গরিষ্ঠ	-6411
বিয়ান	-6412
াধিকার	-6413
▁আম্মু	-6414
▁ইমেইল	-6415
▁ওয়াল	-6416
▁করাতে	-6417
▁কায়ে	-6418
▁তুমিও	-6419
▁দুইটা	-6420
▁নেপাল	-6421
▁পার্স	-6422
▁পিতাম	-6423
▁পোর্ট	-6424
▁বাক্স	-6425
▁বুড়ো	-6426
▁লোকটা	-6427
▁শরীরে	-6428
▁শেষের	-6429
▁সান্ত	-6430
মিডিয়া	-6431
▁আব্দুল	-6432
▁গর্বিত	-6433
▁গ্রীষ্	-6434
▁চাকুরি	-6435
▁জানালা	-6436
▁জাম্বি	-6437
▁থাকবেন	-6438
▁দাঁড়া	-6439
▁দৃশ্যত	-6440
▁নিচ্ছি	-6441
▁উৎসাহিত	-6442
▁কংগ্রেস	-6443
▁কয়েকটা	-6444
▁প্ল্যান	-6445
▁বিষয়টা	-6446
▁ভাইয়ের	-6447
▁মনোনয়ন	-6448
▁লাগিয়ে	-6449
▁লিবিয়া	-6450
▁সংবিধান	-6451
▁ছাড়িয়ে	-6452
▁প্রমাণিত	-6453
▁ভালোভাবে	-6454
▁সমস্যায়	-6455
▁সোভিয়েত	-6456
▁পারমাণবিক	-6457
▁প্রজন্মের	-6458
▁ভদ্রমহিলা	-6459
▁মন্তব্যের	-6460
▁অবিশ্বাস্য	-6461
▁ভূমিকম্পের	-6462
▁হত্যাকাণ্ড	-6463
▁হ্যাশট্যাগের	-6464
▁ইন্টারন্যাশনাল	-6465
▁প্রতিবাদকারীদের	-6466
▁বিশ্ববিদ্যালয়ে	-6467
TP	-6468
im	-6469
ري	-6470
ما	-6471
ইর	-6472
গম	-6473
জম	-6474
”-	-6475
ect	-6476
old	-6477
onf	-6478
কশন	-6479
জকে	-6480
টতে	-6481
ভিউ	-6482
▁জঘ	-6483
▁সশ	-6484
টাতে	-6485
ন্ডা	-6486
বর্ধ	-6487
যোগী	-6488
লিতে	-6489
শীয়	-6490
াদির	-6491
ান্ন	-6492
▁অবি	-6493
▁ডজন	-6494
▁ফাল	-6495
▁ভিক	-6496
▁ময়	-6497
▁রয়	-6498
▁লিন	-6499
▁সাঁ	-6500
ত্বের	-6501
দায়ক	-6502
বাসীর	-6503
বাহিত	-6504
য়াইট	-6505
্যালঘ	-6506
▁এরিক	-6507
▁কেনা	-6508
▁ক্রু	-6509
▁খায়	-6510
▁থেকো	-6511
▁দিলো	-6512
▁পাঠক	-6513
▁বেচে	-6514
▁ভাবি	-6515
▁ভালই	-6516
▁রাখি	-6517
▁রেখা	-6518
▁শুভে	-6519
▁সাহে	-6520
▁সিকি	-6521
▁স্যু	-6522
তামূলক	-6523
প্রায়	-6524
ান্নার	-6525
ার্নাল	-6526
ৃঙ্খলা	-6527
্রাণিত	-6528
▁অজস্র	-6529
▁উদ্দী	-6530
▁এসবের	-6531
▁ওয়েন	-6532
▁কাছেই	-6533
▁গ্রাহ	-6534
▁চাইনা	-6535
▁দেখেন	-6536
▁পাচ্ছ	-6537
▁বিরতি	-6538
▁লক্ষণ	-6539
▁লঙ্ঘন	-6540
▁সুস্থ	-6541
▁সেরকম	-6542
▁হতাশা	-6543
▁অনুশীল	-6544
▁উচ্চতা	-6545
▁করেননি	-6546
▁কায়রো	-6547
▁চায়না	-6548
▁ডায়াল	-6549
▁তাহরির	-6550
▁পড়েছি	-6551
▁পারেনা	-6552
▁প্রসার	-6553
▁ফাউন্ড	-6554
▁বাড়তি	-6555
▁বাড়তে	-6556
▁মুবারক	-6557
▁সাইটের	-6558
▁আশ্চর্য	-6559
▁জাহাজের	-6560
▁তালেবান	-6561
▁নেপালের	-6562
▁প্রচলিত	-6563
▁ফ্রেঞ্চ	-6564
▁বিপক্ষে	-6565
▁বেসরকার	-6566
▁ব্যানার	-6567
▁ভাগাভাগ	-6568
▁সুন্দরী	-6569
▁স্বার্থ	-6570
নির্দিষ্ট	-6571
ার্টমেন্ট	-6572
▁অংশগ্রহন	-6573
▁কর্মসূচি	-6574
▁কাউন্সিল	-6575
▁জায়গাটা	-6576
▁দ্বন্দ্ব	-6577
▁নিরপেক্ষ	-6578
▁পরিচিতির	-6579
▁ফিলিপাইন	-6580
▁বেসামরিক	-6581
▁সংখ্যালঘ	-6582
▁অর্থনীতির	-6583
▁ইতিমধ্যেই	-6584
▁প্রকল্পটি	-6585
▁বাণিজ্যিক	-6586
▁থাইল্যান্ডে	-6587
▁দৃষ্টিভঙ্গি	-6588
bo	-6589
ধব	-6590
ফট	-6591
মল	-6592
ind	-6593
জাব	-6594
ডোর	-6595
রিন	-6596
ৃতা	-6597
▁(.	-6598
▁আং	-6599
▁কূ	-6600
▁তৃ	-6601
▁২৯	-6602
ould	-6603
ting	-6604
বাদি	-6605
ব্যা	-6606
ামিল	-6607
্রাজ	-6608
▁GNU	-6609
▁على	-6610
▁وال	-6611
▁অগ্	-6612
▁আলা	-6613
▁চর্	-6614
▁জোন	-6615
▁থীম	-6616
▁দেহ	-6617
▁পদে	-6618
▁রিস	-6619
▁রোধ	-6620
▁লেব	-6621
▁হবো	-6622
▁হুই	-6623
গুলির	-6624
জগতের	-6625
তাসীন	-6626
লিয়ে	-6627
সংহার	-6628
াইটের	-6629
ারম্ভ	-6630
▁আবাস	-6631
▁এন্ট	-6632
▁ওভার	-6633
▁কথাই	-6634
▁কম্ব	-6635
▁কিনে	-6636
▁কৃষি	-6637
▁গঠিত	-6638
▁গণনা	-6639
▁জনসম	-6640
▁দুরে	-6641
▁দূষণ	-6642
▁ধরছে	-6643
▁পড়ো	-6644
▁পিছু	-6645
▁বলছো	-6646
▁বিল্	-6647
▁মহাম	-6648
াক্রমে	-6649
্যান্স	-6650
▁করতেই	-6651
▁টাইমস	-6652
▁টুইটে	-6653
▁তুষার	-6654
▁দায়ে	-6655
▁পাশের	-6656
▁মেট্র	-6657
▁সাহিত	-6658
▁হালকা	-6659
▁হেঁটে	-6660
▁অন্যকে	-6661
▁গাজায়	-6662
▁ঘনিষ্ঠ	-6663
▁চাওয়া	-6664
▁নেতারা	-6665
▁পানিতে	-6666
▁মহাদেশ	-6667
▁মহিলার	-6668
▁সাইকেল	-6669
▁অপরিচিত	-6670
▁উড়িয়ে	-6671
▁উপসংহার	-6672
▁এনকোডিং	-6673
▁পয়েন্ট	-6674
▁বক্তৃতা	-6675
▁বিস্তৃত	-6676
▁মিলিয়ে	-6677
▁শান্তির	-6678
▁সবকিছুই	-6679
▁সম্মেলন	-6680
▁নিয়েছিল	-6681
▁প্রথমবার	-6682
▁প্রবেশের	-6683
▁বিপজ্জনক	-6684
▁উদ্বাস্তু	-6685
▁ক্ষমতাসীন	-6686
▁পর্যায়ের	-6687
▁অনুপ্রাণিত	-6688
▁ক্লায়েন্ট	-6689
▁প্রস্তাবিত	-6690
▁ফিলিপাইনের	-6691
▁বিনামূল্যে	-6692
▁মহাকাশমন্ড	-6693
▁প্রেক্ষাপটে	-6694
▁মিয়ানমারের	-6695
▁সিদ্ধান্তের	-6696
▁সংখ্যাগরিষ্ঠ	-6697
▁প্রেসিডেন্টের	-6698
▁প্রধানমন্ত্রীর	-6699
ht	-6700
ঝে	-6701
ষে	-6702
িম	-6703
ree	-6704
কাস	-6705
কিউ	-6706
জাম	-6707
ডোন	-6708
তবে	-6709
বলি	-6710
লাই	-6711
লিউ	-6712
লোর	-6713
েরও	-6714
▁অহ	-6715
ange	-6716
গড়া	-6717
ঞ্জি	-6718
দ্বে	-6719
ভার্	-6720
মারে	-6721
য়াক	-6722
র্মা	-6723
▁الع	-6724
▁অচি	-6725
▁আগত	-6726
▁চিত	-6727
▁দ্র	-6728
▁ভরা	-6729
▁সবই	-6730
▁সাদ	-6731
▁সুল	-6732
▁স্ন	-6733
ক্তিক	-6734
চ্যুত	-6735
পাতের	-6736
পাত্র	-6737
বাচিত	-6738
বারেই	-6739
রায়ণ	-6740
শিল্প	-6741
স্টিক	-6742
▁আইকন	-6743
▁আরবে	-6744
▁ইন্স	-6745
▁উষ্ণ	-6746
▁এইডস	-6747
▁কানে	-6748
▁জগতে	-6749
▁দামে	-6750
▁নীরব	-6751
▁পডকা	-6752
▁ফিরআ	-6753
▁ফুটে	-6754
▁ব্রু	-6755
▁ভারী	-6756
▁মরতে	-6757
▁লাগল	-6758
▁হার্	-6759
▁হোমস	-6760
▁১০০০	-6761
টোগ্রা	-6762
সংখ্যা	-6763
স্টাইন	-6764
স্ট্রি	-6765
▁অক্ষম	-6766
▁আমরাও	-6767
▁ইউসুফ	-6768
▁কবিতা	-6769
▁কৌতূহ	-6770
▁গবেষণ	-6771
▁তারাই	-6772
▁নোংরা	-6773
▁পাত্র	-6774
▁পুনরু	-6775
▁বুলেট	-6776
▁ভাবেই	-6777
▁মিটার	-6778
▁মিলিত	-6779
▁রক্ষণ	-6780
▁শতকরা	-6781
▁শ্বাস	-6782
▁সংকেত	-6783
▁সকলেই	-6784
যোগাযোগ	-6785
▁আকাশের	-6786
▁উদ্ভাব	-6787
▁কুর্দি	-6788
▁ঘটেছিল	-6789
▁ডিজাইন	-6790
▁প্রোটো	-6791
▁বন্ধের	-6792
▁ব্রাউজ	-6793
▁মিনিটে	-6794
▁মূর্তি	-6795
▁যাইহোক	-6796
▁রক্ষার	-6797
▁শব্দটি	-6798
▁আনন্দিত	-6799
▁কমপক্ষে	-6800
▁গাড়িতে	-6801
▁গ্রহণের	-6802
▁নিজেরাই	-6803
▁পর্যালো	-6804
▁পাচ্ছেন	-6805
▁ভ্রমণের	-6806
▁লক্ষ্যে	-6807
▁সদস্যরা	-6808
▁সাক্ষাত	-6809
▁সুরক্ষা	-6810
▁উদযাপনের	-6811
▁নির্মাতা	-6812
▁পরিস্কার	-6813
▁পরীক্ষার	-6814
▁প্রচারিত	-6815
▁বিস্ফোরণ	-6816
▁ভাগাভাগি	-6817
▁মারাত্মক	-6818
▁সম্মানিত	-6819
▁সম্মেলনে	-6820
▁উন্নয়নের	-6821
▁এনক্রিপশন	-6822
▁ক্যালেন্ড	-6823
▁প্রতিবেশী	-6824
▁বিষয়গুলো	-6825
▁ব্যবসায়ী	-6826
▁শিরোনামের	-6827
▁সংরক্ষণের	-6828
▁স্কোয়ারে	-6829
▁পাকিস্তানে	-6830
▁শিক্ষার্থী	-6831
▁সফটওয়্যার	-6832
▁মায়ানমারের	-6833
▁প্রতিদ্বন্দ্ব	-6834
pp	-6835
টকে	-6836
টিও	-6837
ড্র	-6838
দিক	-6839
পান	-6840
শ্ম	-6841
সিং	-6842
াতো	-6843
▁Ex	-6844
▁ইট	-6845
ইনের	-6846
জালে	-6847
দানী	-6848
ধারী	-6849
শালা	-6850
শ্বর	-6851
সিপি	-6852
ানীর	-6853
ামীর	-6854
▁এডি	-6855
▁কবর	-6856
▁কবে	-6857
▁কুর	-6858
▁চাষ	-6859
▁চুম	-6860
▁ছোঁ	-6861
▁টেক	-6862
▁ডিম	-6863
▁ভাস	-6864
▁ষড়	-6865
▁হাউ	-6866
▁হেন	-6867
উরিটি	-6868
গুয়ে	-6869
ঙ্কের	-6870
ঞ্চিত	-6871
দেরকে	-6872
বিদের	-6873
য়ার্	-6874
▁অব্য	-6875
▁অর্জ	-6876
▁আইনে	-6877
▁আব্ব	-6878
▁উদার	-6879
▁এইটা	-6880
▁চাহি	-6881
▁জেমস	-6882
▁জ্বল	-6883
▁জ্যা	-6884
▁তোরা	-6885
▁দেরী	-6886
▁নিচু	-6887
▁ফর্ম	-6888
▁ফ্রা	-6889
▁বিনা	-6890
▁মেডি	-6891
▁সংবি	-6892
▁সমঝো	-6893
▁সমূহ	-6894
বিয়ার	-6895
যাত্রা	-6896
সিয়াল	-6897
াকালীন	-6898
িয়েশন	-6899
▁gedit	-6900
▁অন্তর	-6901
▁আইনগত	-6902
▁উইণ্ড	-6903
▁চাইছে	-6904
▁চালান	-6905
▁চিলির	-6906
▁থাকুন	-6907
▁পতনের	-6908
▁পরিমা	-6909
▁পাইনি	-6910
▁পাঠান	-6911
▁পোষ্ট	-6912
▁ফেইসব	-6913
▁বর্ষপ	-6914
▁বিক্র	-6915
▁বিপদে	-6916
▁বিরাট	-6917
▁বেকার	-6918
▁ম্যাপ	-6919
▁লাগলো	-6920
▁শিশুর	-6921
▁সেটার	-6922
▁স্ত্র	-6923
▁হাইতি	-6924
▁অচিরেই	-6925
▁অ্যান্	-6926
▁আগুনের	-6927
▁খুঁজছে	-6928
▁ঠান্ডা	-6929
▁দক্ষতা	-6930
▁দেয়াল	-6931
▁বাঁচাও	-6932
▁বিড়াল	-6933
▁মধ্যের	-6934
▁মৃতদেহ	-6935
▁সংযোজন	-6936
▁সীমানা	-6937
▁অতিক্রম	-6938
▁আজারবাই	-6939
▁উচ্চারণ	-6940
▁নিষ্ঠুর	-6941
▁পরিশ্রম	-6942
▁পিছিয়ে	-6943
▁পৃষ্ঠার	-6944
▁বৃহত্তম	-6945
▁ব্যান্ড	-6946
▁মসজিদের	-6947
▁ম্যাগাজ	-6948
▁রেখেছেন	-6949
▁সন্ধ্যা	-6950
▁সফলভাবে	-6951
▁সবসময়ই	-6952
▁স্যাটেল	-6953
▁অনেকগুলো	-6954
▁ইতিহাসের	-6955
▁উত্তেজিত	-6956
▁একাত্মতা	-6957
▁একেবারেই	-6958
▁পরিপূর্ণ	-6959
▁বিক্ষোভে	-6960
▁বেসরকারী	-6961
▁ব্লগারের	-6962
▁অভিজ্ঞতার	-6963
▁নির্মাণের	-6964
▁সংস্কারের	-6965
▁translated	-6966
▁প্রথমবারের	-6967
▁সম্প্রসারণ	-6968
▁সিঙ্গাপুরের	-6969
▁স্থায়ীরূপে	-6970
▁ইন্দোনেশিয়া	-6971
▁স্বেচ্ছাসেবী	-6972
',	-6973
ll	-6974
ob	-6975
اء	-6976
ست	-6977
অথ	-6978
ীদ	-6979
ian	-6980
কিল	-6981
খের	-6982
গরে	-6983
জিক	-6984
থাৎ	-6985
দোষ	-6986
ন্ঠ	-6987
পিং	-6988
যার	-6989
রাল	-6990
রূপ	-6991
লাক	-6992
লাভ	-6993
লেও	-6994
সাব	-6995
হিম	-6996
্তু	-6997
▁ac	-6998
▁জী	-6999
▁মল	-7000
angu	-7001
একটি	-7002
ক্তা	-7003
টারে	-7004
ন্থা	-7005
বেশন	-7006
র্মে	-7007
শ্রে	-7008
স্টন	-7009
২০১২	-7010
▁com	-7011
▁অসহ	-7012
▁আদৌ	-7013
▁এরই	-7014
▁এলো	-7015
▁কিম	-7016
▁খাও	-7017
▁জেন	-7018
▁তুম	-7019
▁নগর	-7020
▁নরম	-7021
▁মনি	-7022
▁রাম	-7023
▁লুই	-7024
▁লেক	-7025
▁হান	-7026
▁৩০০	-7027
আমাকে	-7028
বেগের	-7029
র্ধ্ব	-7030
শ্বিক	-7031
াত্তা	-7032
▁Name	-7033
▁আনবে	-7034
▁আলাপ	-7035
▁আসবো	-7036
▁ইশকা	-7037
▁উনার	-7038
▁এটির	-7039
▁কথাও	-7040
▁গ্রি	-7041
▁ডাকো	-7042
▁পিছে	-7043
▁বললো	-7044
▁মোটর	-7045
▁রিপা	-7046
▁লাঠি	-7047
▁শর্ট	-7048
▁শিবি	-7049
ক্ষিতে	-7050
পিয়ান	-7051
মাত্রা	-7052
স্থলের	-7053
াতাদের	-7054
ালিয়া	-7055
▁অসন্ত	-7056
▁অস্বা	-7057
▁উৎসবে	-7058
▁চাইবে	-7059
▁ছুড়ে	-7060
▁জঘন্য	-7061
▁দৃষ্ট	-7062
▁পার্ট	-7063
▁ফোরাম	-7064
▁বৈধতা	-7065
▁ব্লাক	-7066
▁ভাবনা	-7067
▁মন্দি	-7068
▁যোদ্ধ	-7069
▁সাহেব	-7070
▁স্থির	-7071
▁স্বপ্	-7072
▁হোটেল	-7073
যুক্তির	-7074
▁অদৃশ্য	-7075
▁অর্ন্ত	-7076
▁এইভাবে	-7077
▁এছাড়া	-7078
▁গ্রন্থ	-7079
▁টুলবার	-7080
▁দিয়েছ	-7081
▁দৌড়াও	-7082
▁বাদশাহ	-7083
▁মালাউই	-7084
▁শুনলাম	-7085
▁সৌন্দর	-7086
▁অভিবাসন	-7087
▁ইসলামের	-7088
▁কুকুরের	-7089
▁ক্ষুব্ধ	-7090
▁দরখাস্ত	-7091
▁নিরাপদে	-7092
▁প্রজন্ম	-7093
▁প্রোগ্র	-7094
▁বরখাস্ত	-7095
▁বিবেচিত	-7096
▁মরোক্কো	-7097
▁মর্যাদা	-7098
▁শ্রেণীর	-7099
▁সমন্বয়	-7100
▁সশস্ত্র	-7101
▁সৃষ্টির	-7102
▁হোয়াইট	-7103
▁ইশকাপনের	-7104
▁কার্যকরী	-7105
▁ক্রিসমাস	-7106
▁ট্যাক্সি	-7107
▁পুরুষদের	-7108
▁বাঁচিয়ে	-7109
▁মঙ্গলবার	-7110
▁শুভেচ্ছা	-7111
▁সঠিকভাবে	-7112
▁সন্তানের	-7113
▁সন্নিবেশ	-7114
▁এক্ষেত্রে	-7115
▁জনগোষ্ঠীর	-7116
▁নেটনাগরিক	-7117
▁প্রদর্শনী	-7118
▁বিদ্যালয়	-7119
▁যোগাযোগের	-7120
▁ষড়যন্ত্র	-7121
▁সন্ধ্যায়	-7122
▁স্ক্রীনের	-7123
▁হস্তক্ষেপ	-7124
▁গণতন্ত্রের	-7125
▁বিদ্যালয়ে	-7126
▁বিশ্বকাপের	-7127
▁সাক্ষাৎকারে	-7128
▁আর্জেন্টিনার	-7129
▁নিয়ন্ত্রণের	-7130
OR	-7131
fo	-7132
ik	-7133
ss	-7134
ني	-7135
ور	-7136
উর	-7137
ট্	-7138
লফ	-7139
▁4	-7140
▁ঊ	-7141
ase	-7142
ber	-7143
ers	-7144
ext	-7145
ong	-7146
rip	-7147
কাজ	-7148
খার	-7149
জেল	-7150
টেড	-7151
নিস	-7152
ফাজ	-7153
য়ু	-7154
শির	-7155
হাজ	-7156
▁he	-7157
▁un	-7158
▁গড	-7159
টনের	-7160
ট্টা	-7161
নিকে	-7162
পত্য	-7163
যারা	-7164
ানকে	-7165
▁are	-7166
▁উপা	-7167
▁এক্	-7168
▁পতন	-7169
▁পিট	-7170
▁পেট	-7171
▁মেম	-7172
এখানে	-7173
গ্রাম	-7174
ণ্ডিত	-7175
দ্বেষ	-7176
ধ্বনি	-7177
প্তাহ	-7178
র্থিত	-7179
াপরাধ	-7180
ামূলক	-7181
▁আগমন	-7182
▁আবর্	-7183
▁গরীব	-7184
▁গর্ত	-7185
▁চেপে	-7186
▁জিভি	-7187
▁জেলা	-7188
▁টোকি	-7189
▁ডেমো	-7190
▁নাজি	-7191
▁নৌকা	-7192
▁বাটন	-7193
▁বিষ্	-7194
▁বুঝি	-7195
▁বৈরু	-7196
▁বোতল	-7197
▁মানি	-7198
▁সংকট	-7199
▁২০০৬	-7200
্যায়ন	-7201
▁state	-7202
▁অতিথি	-7203
▁আকাশে	-7204
▁উপদেশ	-7205
▁ওয়াও	-7206
▁কভারে	-7207
▁পরেছে	-7208
▁পারতে	-7209
▁বাড়া	-7210
▁বেড়া	-7211
▁মজুরি	-7212
▁মুখোশ	-7213
▁শোনার	-7214
▁সহানু	-7215
anguage	-7216
ব্যক্তি	-7217
▁অফলাইন	-7218
▁অর্থাৎ	-7219
▁উইণ্ডো	-7220
▁একসময়	-7221
▁ক্যাফে	-7222
▁চতুর্থ	-7223
▁ঠাণ্ডা	-7224
▁ড্রাইভ	-7225
▁দাঙ্গা	-7226
▁নিয়োজ	-7227
▁পায়নি	-7228
▁প্যানে	-7229
▁বাঁচতে	-7230
▁বিবিসি	-7231
▁বুধবার	-7232
▁মুদ্রা	-7233
▁শনিবার	-7234
▁সোমবার	-7235
▁স্বদেশ	-7236
▁হরতনের	-7237
▁অগ্রগতি	-7238
▁ক্রীড়া	-7239
▁ছাত্ররা	-7240
▁ডেস্কটপ	-7241
▁পোর্টাল	-7242
▁বৈশ্বিক	-7243
▁ভবিষ্যত	-7244
▁মাত্রার	-7245
▁মেয়েটা	-7246
▁যোগ্যতা	-7247
▁লেবাননে	-7248
▁সামগ্রী	-7249
▁স্ক্যান	-7250
▁স্টেশনে	-7251
▁হয়রানি	-7252
▁বন্ধুত্ব	-7253
▁বিষয়টির	-7254
▁বেসরকারি	-7255
▁যন্ত্রণা	-7256
▁লিখেছেনঃ	-7257
▁সেগুলোকে	-7258
▁তথ্যচিত্র	-7259
▁দুর্ঘটনার	-7260
▁ফোল্ডারটি	-7261
▁দেখিয়েছেন	-7262
▁প্রত্যাশিত	-7263
▁প্রযুক্তির	-7264
▁মুসলমানদের	-7265
▁যুদ্ধাপরাধ	-7266
▁প্রতিষ্ঠাতা	-7267
▁শ্রেণীবিভাগ	-7268
▁অংশগ্রহণকারী	-7269
▁অ্যাকাউন্টের	-7270
▁আফগানিস্তানে	-7271
AN	-7272
IL	-7273
اد	-7274
আস	-7275
ইং	-7276
ইই	-7277
খু	-7278
ঙে	-7279
১৮	-7280
▁\	-7281
▁ن	-7282
har	-7283
ost	-7284
ঁচা	-7285
ডিক	-7286
বড়	-7287
মাই	-7288
মেজ	-7289
র্স	-7290
সুল	-7291
াইড	-7292
ীবন	-7293
েরো	-7294
▁wh	-7295
▁عن	-7296
▁কস	-7297
▁তৎ	-7298
athy	-7299
crip	-7300
ound	-7301
এনএন	-7302
এনডি	-7303
দারি	-7304
ফ্রি	-7305
বোর্	-7306
যানে	-7307
ষ্টে	-7308
সারে	-7309
ৃক্ত	-7310
োজ্য	-7311
▁Emp	-7312
▁but	-7313
▁জিহ	-7314
▁ত্র	-7315
▁পিঠ	-7316
▁বাপ	-7317
▁সফর	-7318
▁সরল	-7319
▁সাউ	-7320
▁সিল	-7321
▁১৫০	-7322
Count	-7323
কেলের	-7324
টেক্স	-7325
টেনশন	-7326
বারিক	-7327
স্ক্র	-7328
াসেরো	-7329
▁আর্গ	-7330
▁এঁকে	-7331
▁ডাইন	-7332
▁নথির	-7333
▁নেতি	-7334
▁ফ্লু	-7335
▁বদলা	-7336
▁বলেই	-7337
▁বাক্	-7338
▁ব্লা	-7339
▁মাতৃ	-7340
▁মুসা	-7341
▁লিখন	-7342
▁শহীদ	-7343
▁শোনে	-7344
▁সঞ্চ	-7345
change	-7346
চ্ছন্ন	-7347
পতিবার	-7348
পরায়ণ	-7349
পূর্বক	-7350
িক্সের	-7351
▁অনুসূ	-7352
▁অপরকে	-7353
▁আমারও	-7354
▁আসন্ন	-7355
▁ইস্যু	-7356
▁এনেছি	-7357
▁ওগুলো	-7358
▁কথাটা	-7359
▁কথায়	-7360
▁কন্যা	-7361
▁করানো	-7362
▁খেলতে	-7363
▁খোঁজো	-7364
▁ঘোষনা	-7365
▁ছিলনা	-7366
▁টিকেট	-7367
▁ট্রাক	-7368
▁তহবিল	-7369
▁তাড়া	-7370
▁দশকের	-7371
▁প্রথা	-7372
▁বর্জন	-7373
▁বর্ষণ	-7374
▁বিন্দ	-7375
▁ব্রুন	-7376
▁ভাবছি	-7377
▁মস্তি	-7378
▁মেয়র	-7379
▁রহমান	-7380
▁রাজার	-7381
▁লাভের	-7382
▁শুধুই	-7383
▁সমবেত	-7384
সংক্ষেপ	-7385
▁অস্থির	-7386
▁উইকিপি	-7387
▁ঘটিয়ে	-7388
▁ঘণ্টার	-7389
▁জর্ডান	-7390
▁জাতিগত	-7391
▁জীবনকে	-7392
▁তত্ত্ব	-7393
▁দাবীতে	-7394
▁পর্যটন	-7395
▁পেছনের	-7396
▁বাতাসে	-7397
▁ব্যাথা	-7398
▁যাচ্ছো	-7399
▁যোগদান	-7400
▁সহকারে	-7401
▁সাক্ষী	-7402
▁হুমকির	-7403
▁Empathy	-7404
▁অবশিষ্ট	-7405
▁ইতিহাসে	-7406
▁কথাগুলো	-7407
▁কথোপকথন	-7408
▁ডিস্কের	-7409
▁নির্দোষ	-7410
▁পারছিনা	-7411
▁ফটোগ্রা	-7412
▁বলেছেনঃ	-7413
▁ব্রিটিশ	-7414
▁সেখানেই	-7415
▁হয়েছেঃ	-7416
▁অনলাইনের	-7417
▁উদ্বুদ্ধ	-7418
▁ডকুমেন্ট	-7419
▁নিয়োজিত	-7420
▁পাহাড়ের	-7421
▁প্রযোজ্য	-7422
▁প্রারম্ভ	-7423
▁বার্তায়	-7424
▁ভাবছিলাম	-7425
▁মূল্যবোধ	-7426
▁মৃত্যুতে	-7427
▁সুস্পষ্ট	-7428
▁স্বৈরশাস	-7429
▁কনফারেন্স	-7430
▁দূতাবাসের	-7431
▁পররাষ্ট্র	-7432
▁প্রতিষ্ঠা	-7433
▁সিকিউরিটি	-7434
▁স্ট্যাটাস	-7435
▁হয়েছিলেন	-7436
▁অংশগ্রহণের	-7437
▁কলম্বিয়ার	-7438
▁পর্যালোচনা	-7439
▁পাকিস্তানী	-7440
▁প্রচেষ্টার	-7441
▁সুনির্দিষ্ট	-7442
ML	-7443
ie	-7444
ok	-7445
بي	-7446
حد	-7447
ষধ	-7448
িদ	-7449
ীপ	-7450
১৯	-7451
ell	-7452
ith	-7453
ode	-7454
ord	-7455
our	-7456
গাম	-7457
গোল	-7458
ঙাপ	-7459
ছবি	-7460
টিই	-7461
দুর	-7462
পনে	-7463
ফেস	-7464
লেদ	-7465
স্ফ	-7466
াইক	-7467
’’,	-7468
▁la	-7469
▁ان	-7470
▁ما	-7471
▁উজ	-7472
▁পল	-7473
এক্স	-7474
ক্ষক	-7475
গলের	-7476
ঘাতী	-7477
টিভি	-7478
ন্সে	-7479
মারক	-7480
মেশন	-7481
র্পণ	-7482
সেডো	-7483
াকৃত	-7484
িষ্ট	-7485
ুকের	-7486
▁URI	-7487
▁for	-7488
▁আজি	-7489
▁ইলে	-7490
▁ঔষধ	-7491
▁জন্	-7492
▁ঢাক	-7493
▁তাৎ	-7494
▁দুধ	-7495
▁বাঘ	-7496
▁মডি	-7497
▁মুন	-7498
▁মুভ	-7499
▁মোর	-7500
▁সিক	-7501
ক্রমে	-7502
জাতিক	-7503
টিয়া	-7504
ধারার	-7505
শ্বাস	-7506
িত্বে	-7507
▁আরটি	-7508
▁আরবি	-7509
▁উড়ে	-7510
▁একাই	-7511
▁কক্ষ	-7512
▁গায়	-7513
▁	-7514
া	-7515
র	-7516
ে	-7517
্	-7518
ি	-7519
ন	-7520
ক	-7521
য	-7522
ত	-7523
ব	-7524
ম	-7525
স	-7526
ল	-7527
প	-7528
়	-7529
দ	-7530
ু	-7531
ো	-7532
আ	-7533
ট	-7534
এ	-7535
ছ	-7536
হ	-7537
ই	-7538
জ	-7539
।	-7540
শ	-7541
গ	-7542
চ	-7543
,	-7544
ী	-7545
.	-7546
খ	-7547
থ	-7548
ভ	-7549
ড	-7550
ষ	-7551
ধ	-7552
অ	-7553
ও	-7554
ং	-7555
উ	-7556
-	-7557
ফ	-7558
ণ	-7559
?	-7560
!	-7561
ঠ	-7562
:	-7563
'	-7564
ৃ	-7565
ূ	-7566
e	-7567
ঘ	-7568
ঁ	-7569
)	-7570
(	-7571
a	-7572
০	-7573
o	-7574
t	-7575
n	-7576
s	-7577
১	-7578
i	-7579
২	-7580
"	-7581
ঙ	-7582
’	-7583
r	-7584
ৈ	-7585
l	-7586
ঞ	-7587
%	-7588
_	-7589
ৎ	-7590
ঃ	-7591
ঝ	-7592
d	-7593
ৌ	-7594
m	-7595
ا	-7596
u	-7597
p	-7598
/	-7599
h	-7600
y	-7601
c	-7602
৫	-7603
ل	-7604
@	-7605
৩	-7606
“	-7607
#	-7608
b	-7609
”	-7610
g	-7611
৪	-7612
C	-7613
৯	-7614
A	-7615
ي	-7616
S	-7617
M	-7618
৮	-7619
৭	-7620
1	-7621
D	-7622
م	-7623
৬	-7624
N	-7625
ن	-7626
و	-7627
ঐ	-7628
I	-7629
P	-7630
f	-7631
R	-7632
E	-7633
T	-7634
w	-7635
ت	-7636
2	-7637
$	-7638
k	-7639
ر	-7640
B	-7641
v	-7642
ঢ	-7643
L	-7644
ب	-7645
G	-7646
O	-7647
;	-7648
0	-7649
ع	-7650
F	-7651
ه	-7652
د	-7653
H	-7654
♪	-7655
U	-7656
ঈ	-7657
ة	-7658
ك	-7659
ف	-7660
‘	-7661
س	-7662
ق	-7663
ح	-7664
–	-7665
[	-7666
]	-7667
أ	-7668
x	-7669
W	-7670
3	-7671
*	-7672
K	-7673
V	-7674
৷	-7675
&	-7676
5	-7677
ش	-7678
Y	-7679
X	-7680
ط	-7681
\	-7682
ج	-7683
ص	-7684
‍	-7685
z	-7686
{	-7687
}	-7688
J	-7689
ى	-7690
4	-7691
`	-7692
8	-7693
q	-7694
=	-7695
خ	-7696
9	-7697
j	-7698
6	-7699
،	-7700
ذ	-7701
ঋ	-7702
إ	-7703
ز	-7704
7	-7705
ث	-7706
Q	-7707
ض	-7708
Z	-7709
ঔ	-7710
+	-7711
>	-7712
~	-7713
ـ	-7714
؟	-7715
<	-7716
غ	-7717
ঊ	-7718
ء	-7719
ئ	-7720
ظ	-7721
—	-7722
ً	-7723
©	-7724
َ	-7725
‬	-7726
ؤ	-7727
‪	-7728
ُ	-7729
آ	-7730
ّ	-7731
×	-7732
ā	-7733
Ə	-7734
ی	-7735
¶	-7736
а	-7737
‫	-7738
我	-7739
金	-7740
á	-7741
è	-7742
é	-7743
̈	-7744
Ο	-7745
и	-7746
о	-7747
ِ	-7748
ṭ	-7749
姐	-7750
底	-7751
日	-7752
🎵	-7753
🎶	-7754
🎼	-7755
ē	-7756
Η	-7757
е	-7758
м	-7759
リ	-7760
ー	-7761
上	-7762
天	-7763
染	-7764
的	-7765
者	-7766
ä	-7767
ñ	-7768
ó	-7769
Ā	-7770
ı	-7771
ō	-7772
̆	-7773
̮	-7774
Α	-7775
Κ	-7776
Λ	-7777
Ρ	-7778
Υ	-7779
з	-7780
к	-7781
р	-7782
с	-7783
ч	-7784
א	-7785
ٌ	-7786
ৄ	-7787
ḍ	-7788
•	-7789
い	-7790
゚	-7791
ア	-7792
イ	-7793
テ	-7794
ト	-7795
ポ	-7796
假	-7797
劉	-7798
在	-7799
塔	-7800
大	-7801
字	-7802
寒	-7803
小	-7804
就	-7805
溫	-7806
珊	-7807
環	-7808
生	-7809
约	-7810
纽	-7811
蓝	-7812
行	-7813
装	-7814
軍	-7815
鐵	-7816
韩	-7817
飞	-7818
食	-7819
香	-7820
😀	-7821
^	-7822
»	-7823
Æ	-7824
â	-7825
ç	-7826
í	-7827
î	-7828
Ē	-7829
ğ	-7830
́	-7831
Δ	-7832
Ι	-7833
Σ	-7834
Τ	-7835
А	-7836
Г	-7837
Ж	-7838
З	-7839
Н	-7840
Т	-7841
б	-7842
в	-7843
ж	-7844
л	-7845
н	-7846
п	-7847
т	-7848
у	-7849
י	-7850
ן	-7851
ר	-7852
؛	-7853
ْ	-7854
ک	-7855
঳	-7856
ḷ	-7857
€	-7858
∀	-7859
△	-7860
▶	-7861
☺	-7862
♡	-7863
か	-7864
が	-7865
し	-7866
で	-7867
な	-7868
の	-7869
べ	-7870
ウ	-7871
エ	-7872
ォ	-7873
サ	-7874
ズ	-7875
バ	-7876
フ	-7877
マ	-7878
レ	-7879
ン	-7880
一	-7881
下	-7882
不	-7883
世	-7884
业	-7885
之	-7886
乡	-7887
书	-7888
争	-7889
云	-7890
仰	-7891
企	-7892
傑	-7893
儿	-7894
充	-7895
先	-7896
兵	-7897
動	-7898
友	-7899
台	-7900
吃	-7901
和	-7902
哋	-7903
喜	-7904
国	-7905
圳	-7906
基	-7907
子	-7908
宁	-7909
宋	-7910
實	-7911
寬	-7912
山	-7913
崇	-7914
希	-7915
干	-7916
年	-7917
庆	-7918
強	-7919
很	-7920
志	-7921
思	-7922
感	-7923
慕	-7924
手	-7925
打	-7926
新	-7927
是	-7928
晚	-7929
書	-7930
有	-7931
朋	-7932
服	-7933
望	-7934
本	-7935
李	-7936
松	-7937
査	-7938
業	-7939
構	-7940
欢	-7941
歲	-7942
江	-7943
波	-7944
深	-7945
烏	-7946
物	-7947
狭	-7948
獎	-7949
球	-7950
界	-7951
盆	-7952
看	-7953
祈	-7954
神	-7955
禮	-7956
答	-7957
篮	-7958
給	-7959
統	-7960
聞	-7961
職	-7962
菓	-7963
藥	-7964
街	-7965
被	-7966
視	-7967
計	-7968
調	-7969
讀	-7970
记	-7971
许	-7972
賃	-7973
财	-7974
起	-7975
跟	-7976
踊	-7977
连	-7978
送	-7979
這	-7980
造	-7981
選	-7982
還	-7983
鄉	-7984
野	-7985
闘	-7986
问	-7987
随	-7988
雁	-7989
須	-7990
饭	-7991
鱼	-7992
궤	-7993
의	-7994
😕	-7995
