<pad>	0
<unk>	0
<s>	0
</s>	0
▁t	-0
he	-1
▁a	-2
in	-3
re	-4
▁the	-5
on	-6
ou	-7
▁w	-8
▁s	-9
er	-10
at	-11
an	-12
is	-13
or	-14
en	-15
▁c	-16
it	-17
▁b	-18
▁f	-19
es	-20
ed	-21
▁o	-22
ing	-23
▁m	-24
▁p	-25
▁to	-26
nd	-27
▁d	-28
ar	-29
ll	-30
▁h	-31
▁I	-32
▁of	-33
▁in	-34
▁th	-35
as	-36
om	-37
le	-38
▁y	-39
al	-40
ic	-41
▁T	-42
▁and	-43
▁n	-44
ot	-45
▁you	-46
ion	-47
▁A	-48
▁g	-49
ve	-50
▁l	-51
▁S	-52
ow	-53
us	-54
ent	-55
▁be	-56
▁re	-57
▁is	-58
ay	-59
id	-60
▁on	-61
et	-62
▁M	-63
▁e	-64
ad	-65
ac	-66
▁W	-67
im	-68
os	-69
▁C	-70
ig	-71
am	-72
ver	-73
▁for	-74
▁he	-75
▁that	-76
ld	-77
..	-78
ut	-79
▁H	-80
▁wh	-81
▁it	-82
▁The	-83
▁B	-84
ir	-85
ter	-86
ct	-87
▁P	-88
ly	-89
▁we	-90
▁st	-91
ill	-92
ro	-93
▁-	-94
ation	-95
ur	-96
ag	-97
il	-98
▁D	-99
out	-100
ave	-101
un	-102
ol	-103
▁Y	-104
▁an	-105
ith	-106
st	-107
▁N	-108
ke	-109
▁are	-110
ce	-111
▁not	-112
▁G	-113
ht	-114
▁F	-115
▁with	-116
op	-117
▁r	-118
▁me	-119
▁L	-120
her	-121
all	-122
▁O	-123
ch	-124
ist	-125
ers	-126
▁fr	-127
▁as	-128
if	-129
▁E	-130
od	-131
▁was	-132
our	-133
▁have	-134
▁R	-135
▁this	-136
▁se	-137
em	-138
lo	-139
ain	-140
ight	-141
up	-142
est	-143
ome	-144
se	-145
and	-146
ri	-147
▁ne	-148
▁do	-149
▁k	-150
▁go	-151
▁con	-152
ul	-153
ap	-154
▁"	-155
▁sh	-156
▁from	-157
▁Th	-158
▁v	-159
ess	-160
▁(	-161
ate	-162
▁by	-163
ort	-164
ab	-165
▁at	-166
um	-167
...	-168
res	-169
▁You	-170
▁de	-171
ould	-172
ore	-173
art	-174
nt	-175
▁us	-176
ant	-177
ust	-178
▁will	-179
▁,	-180
ak	-181
▁He	-182
ment	-183
ive	-184
▁has	-185
ia	-186
▁ab	-187
▁2	-188
▁Wh	-189
▁com	-190
age	-191
ry	-192
▁your	-193
iv	-194
ok	-195
▁ex	-196
pe	-197
▁j	-198
oc	-199
ie	-200
ity	-201
▁can	-202
end	-203
▁le	-204
▁J	-205
▁K	-206
▁or	-207
▁al	-208
el	-209
ost	-210
ian	-211
▁wor	-212
▁pro	-213
▁ch	-214
▁We	-215
▁pr	-216
th	-217
▁all	-218
ack	-219
▁they	-220
▁my	-221
▁who	-222
qu	-223
ang	-224
red	-225
ide	-226
ies	-227
▁U	-228
one	-229
rou	-230
ah	-231
▁1	-232
▁It	-233
ud	-234
ind	-235
now	-236
ast	-237
ong	-238
▁whe	-239
ard	-240
▁about	-241
▁their	-242
log	-243
ake	-244
▁up	-245
port	-246
▁tr	-247
▁In	-248
▁out	-249
▁.	-250
ine	-251
▁pe	-252
pt	-253
ub	-254
ace	-255
iz	-256
ure	-257
ame	-258
ook	-259
ous	-260
ect	-261
▁his	-262
▁what	-263
ear	-264
▁one	-265
▁And	-266
▁know	-267
ople	-268
▁ag	-269
ose	-270
ally	-271
ice	-272
▁them	-273
ial	-274
ime	-275
ount	-276
00	-277
ike	-278
▁so	-279
▁but	-280
▁been	-281
▁man	-282
▁were	-283
ile	-284
▁sa	-285
▁pl	-286
ich	-287
gh	-288
very	-289
ord	-290
ther	-291
▁him	-292
ip	-293
▁people	-294
▁blog	-295
▁there	-296
▁What	-297
ber	-298
ck	-299
cc	-300
ra	-301
ep	-302
▁This	-303
act	-304
▁V	-305
▁no	-306
ions	-307
are	-308
▁im	-309
▁like	-310
▁her	-311
ove	-312
▁new	-313
▁un	-314
▁dis	-315
ail	-316
▁get	-317
▁%	-318
▁right	-319
▁here	-320
▁Ch	-321
▁#	-322
ase	-323
▁ar	-324
ated	-325
▁te	-326
ary	-327
▁say	-328
▁which	-329
ue	-330
und	-331
pl	-332
ink	-333
▁cont	-334
ass	-335
ress	-336
▁ev	-337
▁our	-338
ans	-339
▁No	-340
▁more	-341
ff	-342
av	-343
▁don	-344
▁some	-345
▁tw	-346
▁off	-347
▁any	-348
▁just	-349
▁wr	-350
ib	-351
ign	-352
▁int	-353
▁want	-354
og	-355
▁20	-356
▁if	-357
own	-358
▁fo	-359
ug	-360
▁res	-361
ite	-362
▁_	-363
▁cl	-364
▁'	-365
so	-366
ens	-367
▁part	-368
▁when	-369
hing	-370
▁did	-371
orm	-372
use	-373
▁ad	-374
▁St	-375
▁time	-376
ick	-377
lect	-378
▁year	-379
▁pol	-380
other	-381
▁other	-382
ult	-383
▁would	-384
▁fe	-385
▁en	-386
▁count	-387
▁now	-388
▁again	-389
▁said	-390
▁But	-391
aw	-392
▁am	-393
ree	-394
▁co	-395
▁Al	-396
ident	-397
▁201	-398
▁see	-399
able	-400
fter	-401
ish	-402
▁Sh	-403
▁day	-404
ire	-405
▁also	-406
ict	-407
▁work	-408
▁op	-409
▁had	-410
reat	-411
uch	-412
ence	-413
▁On	-414
▁over	-415
▁@	-416
▁act	-417
ere	-418
▁cr	-419
▁All	-420
▁They	-421
ations	-422
ond	-423
▁sp	-424
▁than	-425
▁back	-426
▁bec	-427
▁only	-428
vern	-429
tern	-430
▁br	-431
▁qu	-432
app	-433
ory	-434
hot	-435
way	-436
▁prot	-437
▁Is	-438
▁how	-439
▁comm	-440
▁ap	-441
itt	-442
ause	-443
ound	-444
▁she	-445
▁“	-446
ical	-447
▁spe	-448
▁post	-449
ors	-450
▁call	-451
ubl	-452
▁:	-453
▁acc	-454
▁att	-455
hed	-456
vernment	-457
ger	-458
▁That	-459
ks	-460
ild	-461
ance	-462
▁need	-463
▁As	-464
ious	-465
ge	-466
▁got	-467
ings	-468
az	-469
ath	-470
urn	-471
▁Whe	-472
▁rec	-473
▁und	-474
we	-475
mer	-476
iss	-477
▁could	-478
ition	-479
▁So	-480
ents	-481
▁after	-482
ade	-483
form	-484
▁sup	-485
▁think	-486
▁sc	-487
▁comp	-488
▁should	-489
int	-490
▁per	-491
ach	-492
ال	-493
▁every	-494
▁down	-495
▁world	-496
oss	-497
▁bet	-498
▁government	-499
round	-500
irst	-501
cl	-502
day	-503
▁under	-504
▁country	-505
sel	-506
ons	-507
▁many	-508
ov	-509
ran	-510
▁If	-511
▁med	-512
▁Ar	-513
lease	-514
ife	-515
▁way	-516
vers	-517
▁rem	-518
▁There	-519
▁po	-520
ational	-521
▁An	-522
▁Se	-523
wit	-524
ann	-525
▁going	-526
▁its	-527
▁Go	-528
▁pre	-529
▁How	-530
▁report	-531
▁Re	-532
▁exp	-533
amp	-534
llow	-535
▁where	-536
ists	-537
ew	-538
▁Ind	-539
▁ser	-540
▁take	-541
ull	-542
▁then	-543
▁come	-544
▁two	-545
ren	-546
▁ro	-547
uck	-548
ert	-549
▁into	-550
lp	-551
▁mess	-552
▁good	-553
▁look	-554
ters	-555
ather	-556
▁bel	-557
▁those	-558
▁Un	-559
▁gu	-560
xt	-561
ob	-562
iew	-563
▁against	-564
ark	-565
wn	-566
▁first	-567
omet	-568
▁sec	-569
ces	-570
▁My	-571
ages	-572
ft	-573
ough	-574
alk	-575
▁these	-576
▁reg	-577
▁happ	-578
▁publ	-579
ject	-580
▁make	-581
ities	-582
ied	-583
oy	-584
ise	-585
▁gr	-586
▁3	-587
fore	-588
ater	-589
old	-590
gy	-591
▁ind	-592
ution	-593
uss	-594
witter	-595
▁kill	-596
▁even	-597
▁does	-598
▁Do	-599
ily	-600
▁years	-601
▁ال	-602
ices	-603
▁De	-604
▁media	-605
te	-606
igh	-607
ince	-608
uth	-609
ange	-610
ates	-611
ady	-612
ont	-613
fere	-614
▁help	-615
rib	-616
▁show	-617
▁ke	-618
ning	-619
▁des	-620
▁Oh	-621
▁bl	-622
▁wom	-623
ric	-624
na	-625
uc	-626
ait	-627
ting	-628
▁loc	-629
▁vide	-630
▁because	-631
get	-632
ote	-633
kay	-634
▁news	-635
▁start	-636
▁pres	-637
line	-638
▁tell	-639
ating	-640
ank	-641
▁being	-642
▁She	-643
thing	-644
▁polit	-645
▁add	-646
▁most	-647
▁For	-648
▁may	-649
▁Be	-650
ody	-651
▁)	-652
▁rel	-653
▁follow	-654
▁protest	-655
▁mon	-656
ful	-657
▁min	-658
rough	-659
▁soc	-660
▁find	-661
▁em	-662
roup	-663
▁ask	-664
▁last	-665
▁still	-666
aj	-667
ght	-668
▁very	-669
▁somet	-670
▁life	-671
▁let	-672
▁disc	-673
▁too	-674
▁made	-675
▁long	-676
sh	-677
ward	-678
."	-679
com	-680
ual	-681
aking	-682
ash	-683
gan	-684
ets	-685
▁Twitter	-686
ng	-687
▁hand	-688
▁used	-689
pect	-690
br	-691
▁Pr	-692
ik	-693
▁writ	-694
uman	-695
atch	-696
hoto	-697
pos	-698
book	-699
▁before	-700
▁inv	-701
▁str	-702
pr	-703
arch	-704
self	-705
▁belie	-706
vel	-707
▁Le	-708
▁well	-709
ble	-710
ese	-711
▁dem	-712
▁dif	-713
ower	-714
▁Lord	-715
ror	-716
be	-717
ians	-718
ives	-719
istan	-720
ited	-721
▁use	-722
▁through	-723
air	-724
▁own	-725
▁much	-726
ina	-727
▁Face	-728
ared	-729
▁dec	-730
▁support	-731
▁Z	-732
man	-733
ced	-734
▁Af	-735
gers	-736
▁fam	-737
▁fil	-738
led	-739
med	-740
▁cour	-741
ved	-742
side	-743
▁name	-744
▁(@	-745
▁Com	-746
▁ass	-747
oh	-748
uct	-749
ever	-750
▁around	-751
▁!	-752
▁num	-753
gypt	-754
▁end	-755
▁God	-756
bal	-757
ool	-758
▁such	-759
▁Facebook	-760
▁something	-761
ell	-762
▁list	-763
▁child	-764
▁never	-765
ourn	-766
▁war	-767
bs	-768
▁?	-769
ible	-770
▁fl	-771
▁video	-772
▁why	-773
▁Iran	-774
▁Hey	-775
gr	-776
▁sit	-777
▁Well	-778
▁while	-779
oun	-780
ased	-781
▁Come	-782
▁cur	-783
tt	-784
▁pers	-785
▁Me	-786
li	-787
▁elect	-788
ven	-789
▁Now	-790
▁Sy	-791
ific	-792
▁car	-793
▁ent	-794
ism	-795
▁group	-796
▁away	-797
▁message	-798
eah	-799
uring	-800
▁trans	-801
ues	-802
▁Im	-803
▁read	-804
ves	-805
▁spec	-806
▁place	-807
ix	-808
ades	-809
meric	-810
▁law	-811
▁inform	-812
▁twe	-813
ital	-814
ween	-815
▁conf	-816
▁lead	-817
▁activ	-818
▁head	-819
oth	-820
ittle	-821
▁ter	-822
onna	-823
▁mem	-824
lobal	-825
ular	-826
▁200	-827
▁between	-828
▁commun	-829
▁app	-830
▁happen	-831
▁sure	-832
hes	-833
▁Egypt	-834
▁Let	-835
▁inc	-836
▁gonna	-837
imes	-838
▁talk	-839
▁sy	-840
▁imp	-841
▁didn	-842
▁file	-843
▁Don	-844
ork	-845
▁Why	-846
▁—	-847
▁bu	-848
▁pass	-849
▁Who	-850
▁Q	-851
▁sm	-852
▁prov	-853
iend	-854
les	-855
▁women	-856
▁friend	-857
▁public	-858
▁Not	-859
▁home	-860
clud	-861
▁Ab	-862
▁su	-863
ness	-864
▁cre	-865
▁stud	-866
ments	-867
▁another	-868
iet	-869
ister	-870
▁Allah	-871
ys	-872
▁4	-873
▁set	-874
▁Americ	-875
any	-876
ai	-877
str	-878
▁Min	-879
▁ac	-880
oices	-881
▁love	-882
als	-883
rest	-884
▁sent	-885
▁Please	-886
▁police	-887
ener	-888
▁sur	-889
▁differe	-890
▁When	-891
rent	-892
▁camp	-893
▁same	-894
▁contin	-895
▁ref	-896
ative	-897
▁5	-898
▁ed	-899
▁found	-900
000	-901
irect	-902
▁def	-903
ention	-904
▁wee	-905
▁must	-906
▁Bang	-907
▁little	-908
▁[	-909
▁To	-910
▁really	-911
).	-912
▁&	-913
▁try	-914
▁prom	-915
ought	-916
▁old	-917
▁det	-918
ale	-919
▁art	-920
ood	-921
▁offic	-922
▁open	-923
▁real	-924
▁Br	-925
▁left	-926
ished	-927
ense	-928
ures	-929
▁month	-930
irl	-931
af	-932
cy	-933
▁New	-934
▁;	-935
▁inter	-936
ison	-937
olution	-938
▁Yes	-939
▁give	-940
▁says	-941
▁sign	-942
▁turn	-943
der	-944
▁high	-945
ize	-946
▁human	-947
▁blogger	-948
cept	-949
▁cons	-950
au	-951
▁Fr	-952
ics	-953
▁blo	-954
▁organ	-955
▁iss	-956
ournal	-957
▁Intern	-958
▁social	-959
▁city	-960
▁since	-961
▁today	-962
▁dr	-963
orry	-964
outh	-965
ember	-966
▁feel	-967
▁Yeah	-968
▁political	-969
udi	-970
itiz	-971
ts	-972
▁stop	-973
▁Are	-974
▁cle	-975
▁rep	-976
▁run	-977
iving	-978
▁three	-979
▁bloggers	-980
▁number	-981
ars	-982
▁19	-983
▁resp	-984
▁called	-985
▁Ad	-986
ouse	-987
ute	-988
▁Okay	-989
ope	-990
ands	-991
ized	-992
▁cor	-993
ement	-994
iol	-995
▁few	-996
▁person	-997
uthor	-998
ording	-999
▁days	-1000
▁Where	-1001
▁power	-1002
▁men	-1003
▁user	-1004
rop	-1005
here	-1006
▁vis	-1007
▁information	-1008
ains	-1009
▁bus	-1010
▁sub	-1011
▁attack	-1012
▁Mr	-1013
▁pop	-1014
chool	-1015
▁tak	-1016
▁online	-1017
▁che	-1018
),	-1019
adesh	-1020
▁quest	-1021
reed	-1022
ty	-1023
▁Ex	-1024
▁move	-1025
▁Bangl	-1026
▁point	-1027
▁believe	-1028
,000	-1029
▁far	-1030
ered	-1031
▁cap	-1032
▁net	-1033
▁phot	-1034
▁great	-1035
ries	-1036
▁Photo	-1037
▁recent	-1038
aving	-1039
ene	-1040
▁doing	-1041
▁Afric	-1042
▁intern	-1043
▁fin	-1044
▁different	-1045
aign	-1046
cess	-1047
▁inst	-1048
▁keep	-1049
ants	-1050
▁cover	-1051
ee	-1052
ms	-1053
indow	-1054
▁play	-1055
▁without	-1056
▁put	-1057
▁death	-1058
▁Global	-1059
lim	-1060
ted	-1061
▁May	-1062
▁ext	-1063
▁father	-1064
▁includ	-1065
▁Voices	-1066
▁current	-1067
▁Get	-1068
▁ret	-1069
▁took	-1070
▁و	-1071
▁One	-1072
▁Pak	-1073
▁big	-1074
ready	-1075
ple	-1076
▁Syri	-1077
oney	-1078
stem	-1079
▁ann	-1080
stand	-1081
▁thing	-1082
▁rights	-1083
▁girl	-1084
▁mean	-1085
the	-1086
▁arrest	-1087
▁mar	-1088
▁Just	-1089
▁م	-1090
its	-1091
▁unt	-1092
ax	-1093
▁sl	-1094
per	-1095
rap	-1096
▁told	-1097
▁better	-1098
body	-1099
▁sir	-1100
▁page	-1101
▁children	-1102
ines	-1103
ways	-1104
▁night	-1105
ually	-1106
ument	-1107
▁expl	-1108
▁during	-1109
▁En	-1110
▁won	-1111
▁Russ	-1112
▁seem	-1113
▁stre	-1114
not	-1115
ffect	-1116
▁came	-1117
▁state	-1118
▁select	-1119
row	-1120
▁Can	-1121
▁tri	-1122
▁char	-1123
ailed	-1124
▁partic	-1125
▁Bangladesh	-1126
▁Tr	-1127
▁coll	-1128
▁already	-1129
con	-1130
bers	-1131
▁beh	-1132
▁things	-1133
▁account	-1134
less	-1135
▁Con	-1136
▁Pakistan	-1137
▁campaign	-1138
ama	-1139
▁ph	-1140
ission	-1141
volution	-1142
▁citiz	-1143
▁wrote	-1144
ern	-1145
ged	-1146
ode	-1147
▁fold	-1148
riv	-1149
▁Your	-1150
▁6	-1151
▁mil	-1152
▁Arab	-1153
▁Mal	-1154
▁fight	-1155
▁shall	-1156
▁Te	-1157
angu	-1158
▁change	-1159
▁direct	-1160
ivers	-1161
ey	-1162
▁Blog	-1163
▁second	-1164
used	-1165
view	-1166
▁viol	-1167
▁import	-1168
▁fact	-1169
▁live	-1170
▁word	-1171
▁proble	-1172
ya	-1173
mar	-1174
▁Some	-1175
▁school	-1176
▁US	-1177
▁free	-1178
▁author	-1179
my	-1180
▁At	-1181
ised	-1182
▁India	-1183
lam	-1184
gest	-1185
ility	-1186
▁dead	-1187
eed	-1188
▁Sa	-1189
aring	-1190
ph	-1191
▁Comm	-1192
▁family	-1193
▁project	-1194
co	-1195
idd	-1196
uary	-1197
▁writes	-1198
▁president	-1199
▁ins	-1200
▁Pres	-1201
▁top	-1202
▁mill	-1203
▁Am	-1204
veral	-1205
▁hour	-1206
▁local	-1207
ana	-1208
orn	-1209
▁fuck	-1210
▁next	-1211
nect	-1212
▁boy	-1213
▁might	-1214
ock	-1215
ained	-1216
▁Look	-1217
▁thought	-1218
ane	-1219
iness	-1220
▁both	-1221
▁Or	-1222
▁Pe	-1223
▁er	-1224
arth	-1225
ging	-1226
▁fore	-1227
mber	-1228
velop	-1229
▁care	-1230
▁week	-1231
opy	-1232
uh	-1233
▁7	-1234
▁lot	-1235
ision	-1236
read	-1237
▁journal	-1238
ays	-1239
▁sim	-1240
ata	-1241
▁bo	-1242
ient	-1243
▁Could	-1244
▁killed	-1245
▁understand	-1246
iven	-1247
▁main	-1248
▁wait	-1249
▁anything	-1250
▁ob	-1251
▁case	-1252
▁Acc	-1253
▁meet	-1254
▁tweet	-1255
▁Image	-1256
▁Right	-1257
ones	-1258
▁system	-1259
me	-1260
▁Mus	-1261
▁ever	-1262
▁Here	-1263
▁event	-1264
ication	-1265
▁Mar	-1266
▁bring	-1267
▁story	-1268
▁special	-1269
acy	-1270
arli	-1271
▁val	-1272
▁Then	-1273
ner	-1274
reen	-1275
urity	-1276
▁image	-1277
ins	-1278
▁cannot	-1279
atic	-1280
▁ide	-1281
▁leg	-1282
▁among	-1283
▁money	-1284
▁nothing	-1285
▁President	-1286
ma	-1287
orth	-1288
▁pos	-1289
▁rest	-1290
▁Day	-1291
▁stat	-1292
reedom	-1293
▁av	-1294
▁send	-1295
eth	-1296
▁Pro	-1297
▁serv	-1298
▁webs	-1299
uation	-1300
▁window	-1301
att	-1302
▁water	-1303
▁kind	-1304
▁view	-1305
io	-1306
ye	-1307
hip	-1308
ped	-1309
ided	-1310
▁col	-1311
▁mat	-1312
▁dist	-1313
ify	-1314
osp	-1315
lete	-1316
▁book	-1317
▁please	-1318
▁10	-1319
▁Ph	-1320
▁Sp	-1321
apan	-1322
ling	-1323
ories	-1324
emen	-1325
ired	-1326
olog	-1327
ream	-1328
▁done	-1329
▁China	-1330
eri	-1331
▁started	-1332
arn	-1333
ask	-1334
gram	-1335
ured	-1336
▁el	-1337
▁Kh	-1338
alth	-1339
ides	-1340
▁taken	-1341
▁contro	-1342
▁following	-1343
oon	-1344
ral	-1345
▁doc	-1346
ived	-1347
land	-1348
▁son	-1349
ately	-1350
▁always	-1351
▁prison	-1352
ator	-1353
▁mor	-1354
▁coming	-1355
▁enough	-1356
▁requ	-1357
▁young	-1358
▁become	-1359
ched	-1360
ural	-1361
▁Say	-1362
▁express	-1363
▁Cl	-1364
▁Gu	-1365
▁jo	-1366
▁beg	-1367
▁Every	-1368
▁official	-1369
▁ago	-1370
▁cent	-1371
▁Japan	-1372
▁‘	-1373
aim	-1374
augh	-1375
lish	-1376
▁hope	-1377
▁gener	-1378
▁countries	-1379
▁cond	-1380
▁Dr	-1381
▁His	-1382
arent	-1383
ograp	-1384
▁face	-1385
▁hard	-1386
▁sorry	-1387
▁stand	-1388
▁...	-1389
▁full	-1390
▁wrong	-1391
▁kn	-1392
ason	-1393
erest	-1394
▁appe	-1395
▁poss	-1396
▁happened	-1397
ung	-1398
▁Sc	-1399
rain	-1400
selves	-1401
▁house	-1402
▁ca	-1403
▁saying	-1404
▁8	-1405
rael	-1406
▁form	-1407
▁chang	-1408
▁least	-1409
▁best	-1410
▁lost	-1411
AR	-1412
▁ty	-1413
ified	-1414
▁okay	-1415
▁community	-1416
min	-1417
itor	-1418
aster	-1419
▁near	-1420
▁heart	-1421
▁discuss	-1422
ony	-1423
amed	-1424
▁yet	-1425
▁hear	-1426
▁El	-1427
▁each	-1428
▁folder	-1429
▁reported	-1430
▁lo	-1431
▁bad	-1432
▁lar	-1433
ising	-1434
▁rece	-1435
▁several	-1436
ault	-1437
play	-1438
▁land	-1439
▁prev	-1440
ross	-1441
▁inf	-1442
▁dest	-1443
ession	-1444
▁build	-1445
▁getting	-1446
▁reports	-1447
ele	-1448
ret	-1449
orld	-1450
▁Che	-1451
▁fun	-1452
▁Good	-1453
▁brother	-1454
▁situation	-1455
ott	-1456
que	-1457
▁mov	-1458
▁seen	-1459
▁Islam	-1460
▁leave	-1461
▁others	-1462
▁–	-1463
amb	-1464
une	-1465
ames	-1466
▁vict	-1467
▁milit	-1468
▁langu	-1469
▁press	-1470
▁trying	-1471
ption	-1472
▁crit	-1473
▁sk	-1474
ament	-1475
▁2011	-1476
▁four	-1477
▁react	-1478
▁course	-1479
▁result	-1480
▁America	-1481
▁]	-1482
▁conc	-1483
▁question	-1484
▁أ	-1485
por	-1486
▁able	-1487
▁prod	-1488
▁until	-1489
▁million	-1490
The	-1491
ban	-1492
ocr	-1493
▁Show	-1494
▁”	-1495
▁kid	-1496
▁stri	-1497
wh	-1498
aid	-1499
ering	-1500
▁address	-1501
▁Internet	-1502
▁X	-1503
▁Man	-1504
▁With	-1505
gether	-1506
▁Israel	-1507
▁together	-1508
".	-1509
ird	-1510
uro	-1511
utes	-1512
▁Chr	-1513
▁Ser	-1514
▁court	-1515
▁interest	-1516
els	-1517
elebr	-1518
ially	-1519
▁hist	-1520
▁South	-1521
▁users	-1522
▁using	-1523
ier	-1524
oud	-1525
▁Pl	-1526
▁miss	-1527
▁asked	-1528
▁coverage	-1529
oice	-1530
▁occ	-1531
wards	-1532
ards	-1533
work	-1534
▁doesn	-1535
▁Eng	-1536
conom	-1537
▁cert	-1538
ec	-1539
aun	-1540
ief	-1541
▁flo	-1542
▁2014	-1543
▁stay	-1544
▁return	-1545
▁problem	-1546
▁program	-1547
▁protests	-1548
▁saf	-1549
▁given	-1550
▁relig	-1551
▁announ	-1552
▁messages	-1553
▁national	-1554
▁15	-1555
▁Did	-1556
▁adv	-1557
▁hold	-1558
▁behind	-1559
▁mother	-1560
▁develop	-1561
▁important	-1562
▁Fl	-1563
▁Pal	-1564
▁perm	-1565
▁Thank	-1566
▁peace	-1567
▁Africa	-1568
▁everything	-1569
eng	-1570
rup	-1571
▁World	-1572
▁Ah	-1573
iety	-1574
▁connect	-1575
▁organiz	-1576
▁selected	-1577
▁Ed	-1578
▁protect	-1579
aza	-1580
▁9	-1581
aps	-1582
nce	-1583
raz	-1584
▁Gr	-1585
▁went	-1586
▁watch	-1587
akes	-1588
bo	-1589
aces	-1590
▁dep	-1591
▁win	-1592
▁celebr	-1593
▁particip	-1594
▁activists	-1595
▁threat	-1596
uly	-1597
oint	-1598
▁Our	-1599
▁mom	-1600
light	-1601
▁clear	-1602
▁short	-1603
eg	-1604
▁mod	-1605
ource	-1606
ha	-1607
ta	-1608
men	-1609
ivil	-1610
posed	-1611
▁allow	-1612
▁hours	-1613
▁Iranian	-1614
▁business	-1615
▁es	-1616
▁Mor	-1617
▁Cann	-1618
▁desc	-1619
▁team	-1620
▁living	-1621
alf	-1622
▁Em	-1623
▁Op	-1624
aged	-1625
▁dri	-1626
▁block	-1627
▁including	-1628
udd	-1629
▁pay	-1630
▁whole	-1631
▁friends	-1632
▁According	-1633
▁Ge	-1634
▁Dis	-1635
▁Muslim	-1636
▁ب	-1637
ats	-1638
umb	-1639
▁bro	-1640
ature	-1641
ction	-1642
▁cult	-1643
▁past	-1644
▁pict	-1645
▁prof	-1646
▁After	-1647
▁speak	-1648
▁months	-1649
▁Co	-1650
ined	-1651
▁air	-1652
▁sol	-1653
▁tre	-1654
▁fear	-1655
▁once	-1656
▁students	-1657
ij	-1658
pec	-1659
▁Chin	-1660
ograph	-1661
▁later	-1662
▁security	-1663
word	-1664
▁bit	-1665
▁die	-1666
▁food	-1667
▁claim	-1668
▁freedom	-1669
▁someone	-1670
▁document	-1671
20	-1672
▁eas	-1673
▁enc	-1674
▁2015	-1675
▁mind	-1676
▁check	-1677
▁Cannot	-1678
ny	-1679
aced	-1680
ajor	-1681
come	-1682
▁Many	-1683
▁close	-1684
▁order	-1685
▁ل	-1686
omb	-1687
▁bre	-1688
▁vot	-1689
▁List	-1690
▁mark	-1691
▁across	-1692
▁morning	-1693
ev	-1694
inal	-1695
▁From	-1696
▁sing	-1697
▁times	-1698
▁working	-1699
IN	-1700
most	-1701
ying	-1702
▁citizens	-1703
anc	-1704
ield	-1705
▁2013	-1706
▁earth	-1707
▁party	-1708
yes	-1709
▁known	-1710
▁However	-1711
▁website	-1712
▁Minister	-1713
▁election	-1714
ani	-1715
▁Jan	-1716
ither	-1717
▁else	-1718
▁upon	-1719
▁experi	-1720
aut	-1721
▁'%	-1722
▁Fe	-1723
load	-1724
ublic	-1725
▁soon	-1726
▁inside	-1727
mad	-1728
ract	-1729
▁isn	-1730
right	-1731
esters	-1732
▁small	-1733
▁access	-1734
▁ف	-1735
aff	-1736
raw	-1737
ware	-1738
▁Christ	-1739
▁comment	-1740
▁international	-1741
▁red	-1742
▁blogs	-1743
▁heard	-1744
▁means	-1745
▁photos	-1746
▁posted	-1747
▁taking	-1748
▁arrested	-1749
iti	-1750
▁ra	-1751
ried	-1752
▁saw	-1753
▁educ	-1754
▁wond	-1755
▁error	-1756
▁issue	-1757
of	-1758
ten	-1759
▁woman	-1760
▁looking	-1761
▁Moh	-1762
▁har	-1763
▁job	-1764
▁along	-1765
▁Chinese	-1766
▁popular	-1767
▁remember	-1768
▁published	-1769
ued	-1770
ality	-1771
▁less	-1772
▁lives	-1773
▁continue	-1774
▁military	-1775
ency	-1776
▁key	-1777
▁Euro	-1778
▁major	-1779
▁People	-1780
▁tweeted	-1781
oot	-1782
ush	-1783
▁Saudi	-1784
▁seems	-1785
▁United	-1786
//	-1787
ttp	-1788
▁Er	-1789
uture	-1790
▁http	-1791
▁save	-1792
▁region	-1793
iversity	-1794
▁whether	-1795
cent	-1796
▁cal	-1797
cause	-1798
where	-1799
▁Move	-1800
ically	-1801
▁avail	-1802
▁invest	-1803
▁contact	-1804
▁Egyptian	-1805
▁Col	-1806
▁Rem	-1807
▁ant	-1808
▁oppos	-1809
▁truth	-1810
ination	-1811
ari	-1812
▁Qu	-1813
aper	-1814
icle	-1815
rupt	-1816
▁Mos	-1817
▁aut	-1818
▁server	-1819
▁strong	-1820
go	-1821
▁%1	-1822
iron	-1823
ship	-1824
▁Mess	-1825
▁econom	-1826
▁English	-1827
▁created	-1828
▁everyone	-1829
add	-1830
▁Add	-1831
▁met	-1832
▁matter	-1833
▁minutes	-1834
://	-1835
▁Aug	-1836
▁ill	-1837
▁gone	-1838
uction	-1839
▁having	-1840
▁search	-1841
chn	-1842
uge	-1843
ably	-1844
▁Apr	-1845
▁Cont	-1846
▁fire	-1847
▁oper	-1848
▁side	-1849
▁March	-1850
▁anyone	-1851
▁Us	-1852
▁sw	-1853
▁yes	-1854
ators	-1855
▁grow	-1856
▁Syria	-1857
▁front	-1858
ala	-1859
ead	-1860
ule	-1861
▁Per	-1862
▁Pol	-1863
▁rul	-1864
▁sum	-1865
▁five	-1866
▁trad	-1867
▁victim	-1868
▁wanted	-1869
!!	-1870
anks	-1871
▁est	-1872
aining	-1873
▁light	-1874
▁shared	-1875
,"	-1876
to	-1877
urd	-1878
onstr	-1879
▁site	-1880
▁members	-1881
▁protesters	-1882
unis	-1883
▁Abd	-1884
▁pat	-1885
▁ver	-1886
▁April	-1887
▁Europe	-1888
▁Palest	-1889
▁create	-1890
▁Russian	-1891
▁comments	-1892
",	-1893
▁ع	-1894
ery	-1895
▁idea	-1896
▁text	-1897
▁comes	-1898
▁Indian	-1899
▁Bl	-1900
▁dou	-1901
▁link	-1902
▁plan	-1903
ider	-1904
▁Him	-1905
epend	-1906
▁effect	-1907
▁violence	-1908
empt	-1909
iful	-1910
iting	-1911
▁These	-1912
▁future	-1913
▁though	-1914
arget	-1915
▁Prot	-1916
▁Will	-1917
▁foot	-1918
▁line	-1919
▁walk	-1920
▁incre	-1921
▁making	-1922
▁history	-1923
▁American	-1924
erv	-1925
ober	-1926
▁true	-1927
idents	-1928
rought	-1929
▁Yemen	-1930
▁photo	-1931
ospital	-1932
▁reason	-1933
.”	-1934
cle	-1935
ases	-1936
▁priv	-1937
ahrain	-1938
▁creat	-1939
▁August	-1940
▁outside	-1941
ech	-1942
mit	-1943
▁12	-1944
▁30	-1945
▁Ne	-1946
▁Rep	-1947
▁files	-1948
▁tweets	-1949
ots	-1950
▁Of	-1951
▁Dem	-1952
▁Asia	-1953
▁Open	-1954
▁laun	-1955
▁begin	-1956
arty	-1957
▁Act	-1958
anger	-1959
▁"%	-1960
▁ur	-1961
▁host	-1962
▁rele	-1963
▁polic	-1964
▁posts	-1965
▁Select	-1966
▁present	-1967
▁language	-1968
▁available	-1969
stit	-1970
▁hon	-1971
▁clos	-1972
▁data	-1973
▁mail	-1974
▁themselves	-1975
sc	-1976
oci	-1977
▁dam	-1978
▁hur	-1979
▁town	-1980
▁hands	-1981
uk	-1982
▁2.	-1983
▁ye	-1984
aven	-1985
▁deb	-1986
▁pur	-1987
ended	-1988
ration	-1989
undred	-1990
▁sound	-1991
▁talking	-1992
ape	-1993
org	-1994
▁Ag	-1995
▁2012	-1996
ending	-1997
▁alone	-1998
▁ready	-1999
aughter	-2000
▁Because	-2001
▁capital	-2002
▁concern	-2003
▁ت	-2004
ole	-2005
iver	-2006
ping	-2007
▁Ass	-2008
▁test	-2009
iously	-2010
▁brought	-2011
▁control	-2012
uff	-2013
▁Sec	-2014
▁hit	-2015
▁Take	-2016
▁appl	-2017
▁deal	-2018
▁road	-2019
▁vill	-2020
▁quick	-2021
hen	-2022
▁Ap	-2023
anda	-2024
▁Car	-2025
▁Des	-2026
▁dev	-2027
▁log	-2028
▁held	-2029
▁pain	-2030
▁civil	-2031
▁transl	-2032
▁display	-2033
▁authorities	-2034
▁Tw	-2035
▁bar	-2036
▁cand	-2037
▁words	-2038
▁expect	-2039
▁permission	-2040
▁par	-2041
iding	-2042
itted	-2043
▁forg	-2044
▁former	-2045
▁process	-2046
sw	-2047
▁TV	-2048
itive	-2049
▁groups	-2050
▁possible	-2051
▁11	-2052
▁Ma	-2053
oose	-2054
istry	-2055
▁died	-2056
▁eyes	-2057
▁Tunis	-2058
▁While	-2059
▁exist	-2060
ulation	-2061
▁nation	-2062
▁certain	-2063
ex	-2064
rew	-2065
ails	-2066
nown	-2067
lling	-2068
▁guys	-2069
▁mass	-2070
▁room	-2071
▁thous	-2072
▁forces	-2073
▁command	-2074
▁demonstr	-2075
▁den	-2076
▁jud	-2077
▁events	-2078
▁January	-2079
ان	-2080
▁ي	-2081
tain	-2082
▁due	-2083
▁sug	-2084
▁share	-2085
▁demand	-2086
▁National	-2087
ude	-2088
▁Med	-2089
▁guy	-2090
▁pun	-2091
▁upd	-2092
atever	-2093
▁phone	-2094
▁target	-2095
▁towards	-2096
ickr	-2097
ites	-2098
ming	-2099
rect	-2100
▁web	-2101
▁sold	-2102
▁critic	-2103
adi	-2104
bar	-2105
ops	-2106
hood	-2107
pite	-2108
ample	-2109
▁Hell	-2110
▁safe	-2111
▁appro	-2112
▁ident	-2113
▁learn	-2114
▁terror	-2115
▁hospital	-2116
▁recently	-2117
ored	-2118
▁ord	-2119
▁Cent	-2120
▁anim	-2121
▁area	-2122
▁hell	-2123
▁wife	-2124
cember	-2125
▁Malays	-2126
▁health	-2127
▁society	-2128
▁var	-2129
ccess	-2130
ences	-2131
▁Have	-2132
▁burn	-2133
▁Syrian	-2134
▁streets	-2135
ef	-2136
ne	-2137
leep	-2138
▁Gaza	-2139
▁Tell	-2140
▁often	-2141
▁visit	-2142
▁parent	-2143
▁describ	-2144
arliament	-2145
▁opposition	-2146
▁International	-2147
iber	-2148
ival	-2149
▁Copy	-2150
▁almost	-2151
▁ground	-2152
▁fucking	-2153
▁respons	-2154
▁service	-2155
ze	-2156
ohn	-2157
ows	-2158
ply	-2159
uel	-2160
ury	-2161
▁Res	-2162
▁fav	-2163
▁foc	-2164
▁task	-2165
▁vers	-2166
▁happy	-2167
▁leader	-2168
▁listen	-2169
▁hundred	-2170
▁workers	-2171
▁December	-2172
Wh	-2173
oo	-2174
ali	-2175
ara	-2176
fer	-2177
ges	-2178
mon	-2179
alid	-2180
htag	-2181
▁mag	-2182
izens	-2183
▁Afgh	-2184
▁body	-2185
▁fine	-2186
▁compl	-2187
▁respect	-2188
ton	-2189
▁By	-2190
▁100	-2191
▁sex	-2192
orrow	-2193
▁step	-2194
▁suff	-2195
bruary	-2196
▁cause	-2197
ovember	-2198
▁regime	-2199
▁speech	-2200
▁stories	-2201
▁decision	-2202
ER	-2203
IS	-2204
ares	-2205
weet	-2206
▁mob	-2207
▁fall	-2208
▁game	-2209
▁gave	-2210
▁knew	-2211
▁famil	-2212
▁25	-2213
ilip	-2214
ught	-2215
ology	-2216
AN	-2217
▁♪	-2218
pty	-2219
iday	-2220
lict	-2221
▁Any	-2222
▁Oct	-2223
▁env	-2224
▁Even	-2225
▁Other	-2226
▁beaut	-2227
▁indeed	-2228
▁remind	-2229
▁journalist	-2230
aby	-2231
ctor	-2232
known	-2233
quare	-2234
▁More	-2235
▁Sing	-2236
▁Leban	-2237
▁hashtag	-2238
▁November	-2239
▁yourself	-2240
▁Evolution	-2241
ior	-2242
urs	-2243
▁Har	-2244
▁eff	-2245
anmar	-2246
iddle	-2247
▁opin	-2248
▁based	-2249
▁dream	-2250
▁level	-2251
▁makes	-2252
itional	-2253
▁Russia	-2254
▁failed	-2255
▁foreign	-2256
▁meeting	-2257
rod	-2258
▁18	-2259
▁gl	-2260
▁arg	-2261
▁eng	-2262
▁sym	-2263
▁tou	-2264
arian	-2265
▁wish	-2266
▁moment	-2267
▁myself	-2268
▁strike	-2269
▁collect	-2270
▁company	-2271
▁success	-2272
▁attention	-2273
by	-2274
erc	-2275
ners	-2276
▁Pre	-2277
▁equ	-2278
▁July	-2279
▁Wait	-2280
▁half	-2281
itions	-2282
resent	-2283
though	-2284
▁large	-2285
▁needs	-2286
▁affect	-2287
▁spread	-2288
▁leaders	-2289
▁February	-2290
CC	-2291
era	-2292
▁Par	-2293
▁Stop	-2294
icense	-2295
▁wants	-2296
▁network	-2297
akh	-2298
uce	-2299
xic	-2300
aily	-2301
▁Bar	-2302
▁Sir	-2303
▁ang	-2304
▁cou	-2305
▁answ	-2306
▁anti	-2307
▁fast	-2308
▁Gener	-2309
▁blood	-2310
▁techn	-2311
▁victims	-2312
▁according	-2313
--	-2314
ugg	-2315
▁Ob	-2316
ests	-2317
▁cir	-2318
▁type	-2319
terday	-2320
▁track	-2321
ference	-2322
▁issues	-2323
▁videos	-2324
▁Bahrain	-2325
▁Myanmar	-2326
roy	-2327
▁14	-2328
▁gun	-2329
ently	-2330
▁port	-2331
▁Human	-2332
▁Sorry	-2333
▁black	-2334
▁trave	-2335
ironment	-2336
▁suggest	-2337
oul	-2338
▁Gh	-2339
▁god	-2340
▁hun	-2341
earch	-2342
endar	-2343
▁Flickr	-2344
▁writing	-2345
▁z	-2346
201	-2347
aka	-2348
pose	-2349
▁mis	-2350
▁wit	-2351
▁King	-2352
▁View	-2353
▁audi	-2354
▁bann	-2355
▁late	-2356
arlier	-2357
▁newsp	-2358
▁couldn	-2359
▁object	-2360
▁within	-2361
▁article	-2362
▁interview	-2363
onse	-2364
▁Sal	-2365
▁chance	-2366
▁street	-2367
▁corrupt	-2368
▁complete	-2369
▁religious	-2370
ME	-2371
▁$	-2372
lear	-2373
lled	-2374
▁doub	-2375
▁accept	-2376
▁Whether	-2377
▁mention	-2378
bel	-2379
▁Ke	-2380
haps	-2381
▁See	-2382
▁ear	-2383
▁film	-2384
▁ship	-2385
▁wasn	-2386
▁attempt	-2387
AP	-2388
▁i	-2389
par	-2390
lock	-2391
▁mus	-2392
▁pic	-2393
▁six	-2394
▁via	-2395
▁value	-2396
twitter	-2397
▁October	-2398
▁parents	-2399
▁released	-2400
ين	-2401
cast	-2402
stan	-2403
ached	-2404
rench	-2405
▁Give	-2406
▁bill	-2407
▁join	-2408
▁whom	-2409
▁Moroc	-2410
▁break	-2411
▁trust	-2412
▁images	-2413
▁record	-2414
▁citizen	-2415
▁received	-2416
ler	-2417
oke	-2418
ully	-2419
▁del	-2420
▁inj	-2421
▁vol	-2422
ustom	-2423
▁door	-2424
▁pray	-2425
▁class	-2426
▁write	-2427
▁turned	-2428
▁calling	-2429
▁’	-2430
ball	-2431
ilar	-2432
ires	-2433
▁Cap	-2434
▁John	-2435
▁Error	-2436
▁shows	-2437
▁weeks	-2438
ibility	-2439
▁action	-2440
bol	-2441
iam	-2442
▁24	-2443
aled	-2444
ches	-2445
ivid	-2446
older	-2447
▁color	-2448
▁invol	-2449
▁pract	-2450
▁Rights	-2451
▁democr	-2452
▁daughter	-2453
▁independ	-2454
uz	-2455
fic	-2456
unk	-2457
▁..	-2458
▁Def	-2459
▁non	-2460
▁wel	-2461
▁Kore	-2462
▁Sept	-2463
▁repl	-2464
▁shit	-2465
▁areas	-2466
▁actually	-2467
▁building	-2468
▁netizens	-2469
▁education	-2470
for	-2471
plo	-2472
raq	-2473
over	-2474
▁Ali	-2475
▁hot	-2476
bably	-2477
▁June	-2478
▁army	-2479
▁decl	-2480
idence	-2481
▁chall	-2482
▁himself	-2483
▁La	-2484
uted	-2485
▁cut	-2486
▁eat	-2487
press	-2488
rying	-2489
▁fund	-2490
▁flood	-2491
▁girls	-2492
▁announced	-2493
SA	-2494
BAR	-2495
▁Ky	-2496
▁dig	-2497
gress	-2498
▁pick	-2499
▁prop	-2500
urther	-2501
▁Check	-2502
▁Mexic	-2503
▁drink	-2504
▁Afghan	-2505
▁Failed	-2506
▁personal	-2507
▁elections	-2508
▁highlight	-2509
-1	-2510
rit	-2511
▁16	-2512
anna	-2513
▁Ken	-2514
▁exc	-2515
▁sus	-2516
▁Most	-2517
▁surpr	-2518
▁danger	-2519
▁rather	-2520
▁example	-2521
▁Ministry	-2522
▁questions	-2523
▁ve	-2524
fort	-2525
medi	-2526
▁Nep	-2527
apore	-2528
enced	-2529
▁City	-2530
▁Hello	-2531
▁above	-2532
pecially	-2533
▁African	-2534
▁worship	-2535
▁September	-2536
irt	-2537
ump	-2538
▁من	-2539
reet	-2540
▁Dad	-2541
ailand	-2542
▁initi	-2543
▁decided	-2544
▁release	-2545
▁Palestin	-2546
▁photograph	-2547
ero	-2548
▁13	-2549
ager	-2550
oday	-2551
year	-2552
▁Mon	-2553
▁tit	-2554
▁الم	-2555
itten	-2556
▁arch	-2557
▁crim	-2558
▁tele	-2559
▁except	-2560
▁justice	-2561
▁families	-2562
▁response	-2563
ON	-2564
We	-2565
asc	-2566
lex	-2567
ube	-2568
▁17	-2569
head	-2570
▁Mah	-2571
▁Sam	-2572
▁bas	-2573
▁fig	-2574
▁tot	-2575
fully	-2576
ience	-2577
▁poor	-2578
ources	-2579
▁field	-2580
▁tried	-2581
▁candid	-2582
▁effort	-2583
▁entire	-2584
▁investig	-2585
▁movement	-2586
AT	-2587
ING	-2588
▁Cal	-2589
▁lab	-2590
▁lat	-2591
asing	-2592
▁News	-2593
▁seek	-2594
▁song	-2595
atives	-2596
▁Prime	-2597
▁confir	-2598
▁destroy	-2599
▁private	-2600
▁running	-2601
▁station	-2602
▁environment	-2603
ogn	-2604
▁mot	-2605
▁Iraq	-2606
▁Over	-2607
▁dele	-2608
▁orig	-2609
▁teac	-2610
▁Thanks	-2611
▁office	-2612
▁source	-2613
▁activist	-2614
ilt	-2615
key	-2616
▁Az	-2617
omen	-2618
uced	-2619
▁Sup	-2620
▁hop	-2621
▁pie	-2622
▁sil	-2623
ammad	-2624
▁2010	-2625
▁Save	-2626
▁cost	-2627
▁king	-2628
▁shot	-2629
omatic	-2630
▁extre	-2631
▁States	-2632
▁changed	-2633
▁instead	-2634
▁percent	-2635
▁particular	-2636
▁BY	-2637
irth	-2638
▁Bel	-2639
▁aff	-2640
▁lim	-2641
▁nor	-2642
▁2009	-2643
▁Fran	-2644
▁Name	-2645
▁Only	-2646
▁heav	-2647
▁lack	-2648
▁mine	-2649
▁nice	-2650
▁clean	-2651
▁sleep	-2652
▁common	-2653
▁revolution	-2654
ky	-2655
oz	-2656
joy	-2657
ador	-2658
▁Ben	-2659
inary	-2660
order	-2661
razil	-2662
while	-2663
▁Conf	-2664
▁journalists	-2665
ica	-2666
oll	-2667
ron	-2668
▁af	-2669
ighb	-2670
▁Mom	-2671
ading	-2672
▁Like	-2673
▁copy	-2674
▁sett	-2675
uments	-2676
▁Since	-2677
▁trial	-2678
ividual	-2679
▁French	-2680
▁internet	-2681
▁location	-2682
hi	-2683
▁UN	-2684
▁sn	-2685
▁2.0	-2686
▁bene	-2687
▁item	-2688
▁knows	-2689
ization	-2690
▁design	-2691
▁wonder	-2692
ications	-2693
▁Indones	-2694
▁Thailand	-2695
ka	-2696
▁CC	-2697
ises	-2698
▁Ant	-2699
▁Her	-2700
▁Tur	-2701
▁dog	-2702
▁neg	-2703
▁Work	-2704
▁vote	-2705
▁Those	-2706
▁Today	-2707
▁space	-2708
▁train	-2709
ificate	-2710
▁policy	-2711
▁version	-2712
▁officials	-2713
▁represent	-2714
mas	-2715
▁Att	-2716
▁Ham	-2717
▁Two	-2718
imate	-2719
▁Last	-2720
▁capt	-2721
▁date	-2722
onight	-2723
▁occur	-2724
▁Brazil	-2725
▁became	-2726
▁forget	-2727
▁global	-2728
▁content	-2729
▁culture	-2730
▁earlier	-2731
▁however	-2732
▁politic	-2733
▁session	-2734
▁student	-2735
▁Singapore	-2736
Th	-2737
inc	-2738
ned	-2739
▁في	-2740
more	-2741
oved	-2742
ving	-2743
▁Set	-2744
▁hom	-2745
▁hum	-2746
▁tom	-2747
illed	-2748
unity	-2749
▁conv	-2750
ptions	-2751
utions	-2752
▁2011.	-2753
▁Maybe	-2754
▁alive	-2755
▁estab	-2756
▁sense	-2757
▁choose	-2758
▁cities	-2759
▁neighb	-2760
▁picture	-2761
▁economic	-2762
▁especially	-2763
▁IS	-2764
▁Lib	-2765
▁fac	-2766
idden	-2767
▁drop	-2768
▁exec	-2769
▁pack	-2770
▁reve	-2771
▁tool	-2772
change	-2773
overed	-2774
▁worth	-2775
▁asking	-2776
▁wouldn	-2777
▁changes	-2778
▁University	-2779
▁experience	-2780
IV	-2781
ية	-2782
▁0	-2783
aly	-2784
owd	-2785
tty	-2786
▁Up	-2787
iger	-2788
▁199	-2789
▁Cor	-2790
▁Cre	-2791
oring	-2792
urder	-2793
using	-2794
▁path	-2795
ground	-2796
▁quite	-2797
ability	-2798
▁associ	-2799
▁longer	-2800
▁points	-2801
▁secret	-2802
▁single	-2803
stitution	-2804
▁password	-2805
aks	-2806
cil	-2807
ift	-2808
▁Dh	-2809
uses	-2810
▁Net	-2811
▁Mean	-2812
▁chann	-2813
▁gotta	-2814
▁immedi	-2815
▁Blogger	-2816
▁appoint	-2817
▁request	-2818
▁Japanese	-2819
▁conflict	-2820
▁probably	-2821
▁beautiful	-2822
ES	-2823
ua	-2824
igr	-2825
▁Cr	-2826
▁Lo	-2827
adio	-2828
ring	-2829
▁Put	-2830
▁ele	-2831
▁hor	-2832
▁mer	-2833
▁pri	-2834
▁bomb	-2835
▁trou	-2836
ensive	-2837
▁cross	-2838
▁answer	-2839
▁either	-2840
▁punish	-2841
▁killing	-2842
▁provide	-2843
▁fighting	-2844
▁incident	-2845
▁beginning	-2846
▁continues	-2847
▁reactions	-2848
▁individual	-2849
ار	-2850
raid	-2851
▁Red	-2852
▁ign	-2853
▁led	-2854
based	-2855
▁East	-2856
▁cens	-2857
▁circ	-2858
▁wall	-2859
arding	-2860
▁Would	-2861
▁touch	-2862
▁Islamic	-2863
▁serious	-2864
▁similar	-2865
▁various	-2866
Ch	-2867
eal	-2868
ened	-2869
iles	-2870
ogle	-2871
▁Run	-2872
▁fem	-2873
actly	-2874
anish	-2875
ormal	-2876
▁Back	-2877
▁coun	-2878
▁hurt	-2879
▁aware	-2880
▁early	-2881
▁traff	-2882
▁Another	-2883
▁General	-2884
▁village	-2885
▁50	-2886
ateg	-2887
hent	-2888
iers	-2889
▁inn	-2890
ledge	-2891
▁shut	-2892
▁force	-2893
▁voice	-2894
▁itself	-2895
▁surely	-2896
▁opinion	-2897
▁launched	-2898
la	-2899
elt	-2900
isis	-2901
▁cam	-2902
▁tem	-2903
estern	-2904
ishing	-2905
▁Creat	-2906
▁favor	-2907
▁mount	-2908
▁named	-2909
▁sites	-2910
▁Search	-2911
▁compan	-2912
▁places	-2913
▁recogn	-2914
▁promise	-2915
▁telling	-2916
▁position	-2917
▁yesterday	-2918
yle	-2919
▁Ev	-2920
aves	-2921
igen	-2922
orge	-2923
ients	-2924
▁Char	-2925
▁goes	-2926
▁mode	-2927
▁below	-2928
▁seven	-2929
▁shoot	-2930
uration	-2931
▁Folder	-2932
▁Philip	-2933
▁afraid	-2934
▁belong	-2935
▁waiting	-2936
▁written	-2937
▁residents	-2938
25	-2939
ps	-2940
het	-2941
set	-2942
umn	-2943
airs	-2944
omin	-2945
▁Cup	-2946
▁obs	-2947
▁ple	-2948
▁bull	-2949
▁easy	-2950
▁fair	-2951
▁cance	-2952
▁looks	-2953
▁music	-2954
▁strugg	-2955
▁results	-2956
▁pictures	-2957
▁supposed	-2958
▁Meanwhile	-2959
▁directory	-2960
▁ح	-2961
nam	-2962
ray	-2963
gent	-2964
▁Cong	-2965
▁Keep	-2966
▁thou	-2967
ficult	-2968
itting	-2969
▁calls	-2970
▁empty	-2971
▁thank	-2972
▁treat	-2973
▁further	-2974
▁Malaysia	-2975
▁explains	-2976
1,	-2977
ID	-2978
▁ا	-2979
pic	-2980
▁cy	-2981
bass	-2982
imum	-2983
▁San	-2984
▁ris	-2985
▁sel	-2986
ender	-2987
▁Aust	-2988
▁ones	-2989
▁rain	-2990
▁takes	-2991
▁works	-2992
estival	-2993
▁impact	-2994
▁refuge	-2995
▁attacks	-2996
▁blogging	-2997
▁thinking	-2998
▁currently	-2999
▁ك	-3000
put	-3001
oman	-3002
▁Eth	-3003
▁Mad	-3004
▁Out	-3005
asure	-3006
istic	-3007
▁Does	-3008
▁Miss	-3009
▁baby	-3010
▁size	-3011
▁wide	-3012
▁guess	-3013
▁marri	-3014
▁charac	-3015
▁murder	-3016
▁contrib	-3017
▁leaving	-3018
▁reflect	-3019
▁thousands	-3020
Sh	-3021
▁/	-3022
Tube	-3023
▁Ram	-3024
▁Sat	-3025
▁Sure	-3026
▁York	-3027
▁tour	-3028
▁First	-3029
▁Inter	-3030
▁Obama	-3031
▁cases	-3032
▁drive	-3033
▁email	-3034
▁enjoy	-3035
▁maybe	-3036
▁worry	-3037
etition	-3038
▁Listen	-3039
▁member	-3040
▁minute	-3041
▁mobile	-3042
▁pretty	-3043
▁suppor	-3044
▁Israeli	-3045
▁Message	-3046
▁population	-3047
▁communities	-3048
ceed	-3049
erve	-3050
▁Fin	-3051
▁Inv	-3052
▁Kar	-3053
▁abs	-3054
▁imm	-3055
erson	-3056
icate	-3057
▁deli	-3058
▁feat	-3059
▁mist	-3060
▁match	-3061
artment	-3062
igenous	-3063
▁option	-3064
▁convers	-3065
OR	-3066
ada	-3067
enc	-3068
ram	-3069
▁Ug	-3070
▁Uh	-3071
ader	-3072
otix	-3073
▁age	-3074
▁div	-3075
▁esc	-3076
asons	-3077
▁kids	-3078
ension	-3079
▁crowd	-3080
▁haven	-3081
osphere	-3082
▁config	-3083
▁editor	-3084
▁reform	-3085
▁politics	-3086
▁difficult	-3087
▁corruption	-3088
ek	-3089
dom	-3090
aith	-3091
iter	-3092
aging	-3093
▁Free	-3094
▁beat	-3095
▁deep	-3096
▁surv	-3097
coming	-3098
▁Google	-3099
▁YouTube	-3100
▁forward	-3101
▁hundreds	-3102
▁previous	-3103
▁problems	-3104
▁tomorrow	-3105
▁newspaper	-3106
AL	-3107
ih	-3108
iy	-3109
lu	-3110
uw	-3111
ها	-3112
bed	-3113
ima	-3114
ino	-3115
▁GN	-3116
ends	-3117
unte	-3118
vert	-3119
▁tax	-3120
▁ten	-3121
attle	-3122
icket	-3123
▁born	-3124
▁cell	-3125
minist	-3126
▁market	-3127
▁correct	-3128
▁perform	-3129
▁reading	-3130
▁respond	-3131
▁witness	-3132
لا	-3133
▁(%	-3134
▁Ty	-3135
arak	-3136
fect	-3137
ique	-3138
▁Aut	-3139
▁low	-3140
▁pen	-3141
▁sat	-3142
alled	-3143
▁Mary	-3144
▁West	-3145
▁imag	-3146
▁mult	-3147
▁till	-3148
▁unto	-3149
atform	-3150
▁daily	-3151
▁illeg	-3152
▁plann	-3153
▁reach	-3154
▁wanna	-3155
▁whose	-3156
▁encour	-3157
▁forced	-3158
▁opport	-3159
▁shares	-3160
▁Austral	-3161
▁finally	-3162
▁followed	-3163
▁statement	-3164
US	-3165
mm	-3166
jan	-3167
ales	-3168
▁Lat	-3169
▁Pet	-3170
▁Was	-3171
ordan	-3172
▁emer	-3173
▁self	-3174
▁Nepal	-3175
▁began	-3176
▁names	-3177
sidered	-3178
▁status	-3179
▁Philipp	-3180
▁readers	-3181
▁tonight	-3182
▁whatever	-3183
▁happening	-3184
▁considered	-3185
In	-3186
can	-3187
oom	-3188
hern	-3189
orks	-3190
yond	-3191
▁Sum	-3192
▁cat	-3193
arity	-3194
▁Help	-3195
▁laws	-3196
▁ways	-3197
▁enter	-3198
▁youth	-3199
▁introd	-3200
▁simple	-3201
▁Commons	-3202
▁allowed	-3203
▁application	-3204
DM	-3205
ni	-3206
sp	-3207
rom	-3208
▁aw	-3209
asks	-3210
▁ban	-3211
▁hol	-3212
itude	-3213
ollow	-3214
▁Fuck	-3215
▁dark	-3216
▁fail	-3217
▁yeah	-3218
▁crime	-3219
▁Create	-3220
▁debate	-3221
▁sister	-3222
▁general	-3223
▁calendar	-3224
/1	-3225
dd	-3226
▁س	-3227
awi	-3228
osh	-3229
yan	-3230
....	-3231
atar	-3232
▁Off	-3233
▁buy	-3234
▁hig	-3235
▁oil	-3236
▁alle	-3237
▁lock	-3238
▁lose	-3239
▁Somet	-3240
▁benef	-3241
▁yours	-3242
agement	-3243
▁active	-3244
▁assist	-3245
▁latest	-3246
▁quickly	-3247
▁detained	-3248
rs	-3249
ald	-3250
unt	-3251
chie	-3252
ploy	-3253
ript	-3254
▁Dam	-3255
aries	-3256
▁Find	-3257
▁doll	-3258
▁evil	-3259
▁gets	-3260
▁none	-3261
▁legal	-3262
▁hearts	-3263
▁likely	-3264
▁passed	-3265
▁Muslims	-3266
▁showing	-3267
▁companies	-3268
▁organization	-3269
▁presidential	-3270
oid	-3271
top	-3272
▁Bh	-3273
band	-3274
▁Ang	-3275
▁Wel	-3276
▁Make	-3277
▁draw	-3278
▁lawy	-3279
▁soft	-3280
▁weap	-3281
▁Party	-3282
▁grand	-3283
▁giving	-3284
▁necess	-3285
▁Captain	-3286
▁exactly	-3287
▁Although	-3288
▁platform	-3289
▁relations	-3290
▁parliament	-3291
▁development	-3292
▁interesting	-3293
cu	-3294
▁23	-3295
▁UR	-3296
name	-3297
rict	-3298
▁Sim	-3299
▁Soc	-3300
▁box	-3301
▁fly	-3302
▁farm	-3303
▁felt	-3304
▁rule	-3305
▁trib	-3306
ubarak	-3307
▁Watch	-3308
▁doubt	-3309
▁price	-3310
▁rally	-3311
▁solid	-3312
▁appear	-3313
▁format	-3314
▁gather	-3315
▁Nothing	-3316
▁reasons	-3317
▁related	-3318
▁football	-3319
▁minister	-3320
▁knowledge	-3321
▁supporters	-3322
cho	-3323
wan	-3324
▁TH	-3325
udan	-3326
▁Bur	-3327
▁Loc	-3328
▁Mem	-3329
▁Use	-3330
▁Web	-3331
▁bur	-3332
ambod	-3333
ening	-3334
izing	-3335
▁Jack	-3336
▁bank	-3337
▁code	-3338
▁pane	-3339
▁pull	-3340
vision	-3341
▁Group	-3342
▁North	-3343
▁birth	-3344
▁round	-3345
▁caused	-3346
▁Contact	-3347
▁religion	-3348
▁Copyright	-3349
▁dangerous	-3350
وا	-3351
ume	-3352
▁et	-3353
▁Cur	-3354
▁HIV	-3355
▁Sol	-3356
▁Tom	-3357
▁sad	-3358
▁File	-3359
▁Sund	-3360
▁bott	-3361
▁enem	-3362
▁flag	-3363
▁luck	-3364
▁prep	-3365
▁Ahmed	-3366
▁Dhaka	-3367
▁Enter	-3368
▁separ	-3369
▁Police	-3370
▁couple	-3371
▁crisis	-3372
▁indust	-3373
▁remain	-3374
▁largest	-3375
▁subject	-3376
▁marriage	-3377
AS	-3378
IT	-3379
No	-3380
ao	-3381
ees	-3382
esy	-3383
▁Su	-3384
ague	-3385
down	-3386
path	-3387
▁gas	-3388
▁map	-3389
atory	-3390
ialog	-3391
▁Call	-3392
▁Stay	-3393
▁arri	-3394
▁ball	-3395
▁dear	-3396
▁Great	-3397
▁Moses	-3398
▁Public	-3399
▁choice	-3400
▁Demotix	-3401
▁growing	-3402
▁welcome	-3403
▁consider	-3404
▁positive	-3405
▁websites	-3406
▁supported	-3407
▁Palestinian	-3408
▁independent	-3409
Al	-3410
va	-3411
een	-3412
rec	-3413
reg	-3414
▁26	-3415
▁id	-3416
ergy	-3417
hers	-3418
▁Wik	-3419
▁aim	-3420
quake	-3421
works	-3422
▁2008	-3423
▁Kong	-3424
▁exam	-3425
▁insp	-3426
▁term	-3427
orship	-3428
▁State	-3429
▁gives	-3430
▁raise	-3431
▁third	-3432
▁Cambod	-3433
▁accused	-3434
▁surround	-3435
▁controvers	-3436
:%	-3437
Ar	-3438
RE	-3439
han	-3440
ium	-3441
ken	-3442
▁War	-3443
▁bag	-3444
anted	-3445
going	-3446
▁poll	-3447
▁sort	-3448
▁tort	-3449
ancial	-3450
iction	-3451
▁catch	-3452
▁final	-3453
▁piece	-3454
▁spent	-3455
▁topic	-3456
▁Remove	-3457
▁border	-3458
▁filter	-3459
▁values	-3460
▁worked	-3461
▁Brother	-3462
▁numbers	-3463
▁democracy	-3464
▁expressed	-3465
▁punishment	-3466
▁organizations	-3467
?"	-3468
Is	-3469
ox	-3470
نا	-3471
lin	-3472
rim	-3473
▁ID	-3474
▁Sw	-3475
nder	-3476
wise	-3477
▁Far	-3478
▁Int	-3479
▁Tal	-3480
board	-3481
▁Hold	-3482
▁boys	-3483
▁mach	-3484
riving	-3485
▁Start	-3486
▁meant	-3487
▁worst	-3488
▁Indeed	-3489
▁Mexico	-3490
▁custom	-3491
▁series	-3492
▁Spanish	-3493
▁challen	-3494
▁trouble	-3495
▁administ	-3496
▁organized	-3497
▁immediately	-3498
"?	-3499
50	-3500
OU	-3501
لى	-3502
oph	-3503
▁27	-3504
What	-3505
▁Del	-3506
▁Kaz	-3507
▁dad	-3508
▁pot	-3509
apers	-3510
icles	-3511
ports	-3512
▁Spec	-3513
▁cart	-3514
▁craz	-3515
ressed	-3516
▁movie	-3517
▁print	-3518
▁storm	-3519
▁total	-3520
▁Arabia	-3521
▁letter	-3522
▁symbol	-3523
▁Welcome	-3524
▁anymore	-3525
▁blocked	-3526
▁volunte	-3527
formation	-3528
▁Republic	-3529
▁evidence	-3530
▁Christmas	-3531
▁Afghanistan	-3532
sy	-3533
za	-3534
erm	-3535
ext	-3536
iot	-3537
uan	-3538
▁40	-3539
/201	-3540
alse	-3541
aste	-3542
enty	-3543
ills	-3544
just	-3545
room	-3546
▁Sub	-3547
▁tal	-3548
▁wid	-3549
ittee	-3550
rible	-3551
▁Home	-3552
▁Hong	-3553
▁adds	-3554
▁Media	-3555
▁Niger	-3556
▁audio	-3557
▁colle	-3558
▁extra	-3559
▁notes	-3560
▁saved	-3561
▁shock	-3562
ulations	-3563
▁archive	-3564
▁charges	-3565
▁happens	-3566
▁license	-3567
▁missing	-3568
▁parties	-3569
▁involved	-3570
▁majority	-3571
▁operation	-3572
▁activities	-3573
▁politicians	-3574
dam	-3575
ili	-3576
off	-3577
▁22	-3578
abor	-3579
raft	-3580
wide	-3581
▁Dav	-3582
▁Sar	-3583
▁huh	-3584
andal	-3585
osing	-3586
ullah	-3587
▁Fire	-3588
▁soul	-3589
▁parts	-3590
▁Arabic	-3591
▁Follow	-3592
▁Mother	-3593
▁beyond	-3594
▁alleged	-3595
▁regarding	-3596
eds	-3597
esus	-3598
onym	-3599
upid	-3600
▁Dep	-3601
▁eye	-3602
▁sun	-3603
ammed	-3604
erman	-3605
hered	-3606
▁High	-3607
▁card	-3608
▁suic	-3609
lement	-3610
usband	-3611
▁added	-3612
▁ahead	-3613
▁impro	-3614
▁links	-3615
▁sweet	-3616
itation	-3617
▁Direct	-3618
▁island	-3619
▁Lebanon	-3620
▁despite	-3621
▁evening	-3622
▁regular	-3623
▁announce	-3624
▁services	-3625
0}	-3626
NC	-3627
bl	-3628
ami	-3629
ety	-3630
iny	-3631
{0}	-3632
▁(1	-3633
appe	-3634
reng	-3635
▁Mer	-3636
▁lay	-3637
apped	-3638
▁Book	-3639
▁hate	-3640
▁sell	-3641
▁Armen	-3642
▁books	-3643
▁faith	-3644
reement	-3645
▁George	-3646
▁opened	-3647
▁simply	-3648
▁default	-3649
▁married	-3650
▁product	-3651
▁presence	-3652
▁Pakistani	-3653
▁prisoners	-3654
':	-3655
IC	-3656
ki	-3657
rog	-3658
▁28	-3659
rary	-3660
▁thr	-3661
udden	-3662
▁Send	-3663
▁hero	-3664
▁repe	-3665
▁tear	-3666
icated	-3667
raight	-3668
▁false	-3669
▁table	-3670
ription	-3671
▁crimes	-3672
▁Despite	-3673
▁authent	-3674
▁biggest	-3675
▁folders	-3676
▁traffic	-3677
▁accounts	-3678
▁affected	-3679
▁complain	-3680
▁courtesy	-3681
▁projects	-3682
▁promised	-3683
▁refugees	-3684
VD	-3685
aze	-3686
eve	-3687
isl	-3688
▁hy	-3689
eral	-3690
ixed	-3691
oper	-3692
▁Cub	-3693
▁Law	-3694
▁lik	-3695
▁Best	-3696
▁Play	-3697
▁gold	-3698
▁hang	-3699
▁load	-3700
▁rock	-3701
▁role	-3702
▁becom	-3703
▁broad	-3704
▁eight	-3705
▁white	-3706
▁Friday	-3707
▁Jordan	-3708
▁column	-3709
▁ruling	-3710
▁thanks	-3711
▁actions	-3712
▁details	-3713
▁injured	-3714
▁offline	-3715
▁receive	-3716
▁provided	-3717
▁sentence	-3718
▁languages	-3719
▁Everything	-3720
▁connection	-3721
▁expression	-3722
cut	-3723
ias	-3724
iop	-3725
let	-3726
▁CD	-3727
▁Hi	-3728
airo	-3729
ibly	-3730
rypt	-3731
▁Spe	-3732
▁dom	-3733
▁mad	-3734
▁mos	-3735
▁rub	-3736
▁Cert	-3737
▁Park	-3738
▁asks	-3739
▁busy	-3740
▁drug	-3741
▁quot	-3742
ential	-3743
pected	-3744
verage	-3745
▁Never	-3746
▁built	-3747
▁study	-3748
▁Unable	-3749
▁extreme	-3750
▁illegal	-3751
▁Creative	-3752
▁cultural	-3753
▁disaster	-3754
▁required	-3755
▁sometimes	-3756
▁responsible	-3757
eb	-3758
oe	-3759
▁=	-3760
ita	-3761
uty	-3762
▁1.	-3763
▁أن	-3764
like	-3765
nces	-3766
▁eth	-3767
▁sac	-3768
▁sal	-3769
iring	-3770
ordin	-3771
▁Mark	-3772
▁slow	-3773
▁award	-3774
▁crack	-3775
ossible	-3776
▁Square	-3777
▁Sunday	-3778
▁amount	-3779
▁constr	-3780
▁exists	-3781
▁hunger	-3782
▁instit	-3783
▁streng	-3784
▁Journal	-3785
▁attract	-3786
▁playing	-3787
▁prevent	-3788
▁purpose	-3789
▁sharing	-3790
▁Protests	-3791
▁destroyed	-3792
▁Government	-3793
▁solidarity	-3794
▁throughout	-3795
▁blogosphere	-3796
▁constitution	-3797
):	-3798
30	-3799
gu	-3800
ww	-3801
edd	-3802
hel	-3803
hib	-3804
ila	-3805
rel	-3806
▁Mc	-3807
▁ir	-3808
hran	-3809
ideo	-3810
▁gen	-3811
ishes	-3812
ouses	-3813
▁Prop	-3814
▁aren	-3815
▁spot	-3816
▁Ahmad	-3817
▁Which	-3818
▁achie	-3819
▁focus	-3820
▁honor	-3821
▁offer	-3822
▁shown	-3823
▁charge	-3824
▁female	-3825
▁flight	-3826
▁middle	-3827
▁promot	-3828
▁screen	-3829
▁thinks	-3830
▁Mubarak	-3831
▁claimed	-3832
▁holding	-3833
▁remains	-3834
▁schools	-3835
▁partners	-3836
▁mentioned	-3837
▁technology	-3838
wa	-3839
OME	-3840
agh	-3841
ews	-3842
iar	-3843
pro	-3844
son	-3845
ura	-3846
▁Sm	-3847
▁uh	-3848
edia	-3849
resh	-3850
▁Exc	-3851
▁Muh	-3852
▁anc	-3853
▁nat	-3854
▁sky	-3855
ances	-3856
itter	-3857
usion	-3858
▁Alex	-3859
▁bear	-3860
▁cool	-3861
▁dict	-3862
▁jail	-3863
▁nine	-3864
▁tree	-3865
ported	-3866
▁Trans	-3867
▁occup	-3868
▁paper	-3869
▁throw	-3870
▁trend	-3871
▁delete	-3872
▁dialog	-3873
▁doctor	-3874
▁intell	-3875
▁proper	-3876
▁square	-3877
▁travel	-3878
▁Central	-3879
▁husband	-3880
ification	-3881
▁signific	-3882
▁soldiers	-3883
▁indigenous	-3884
▁traditional	-3885
":	-3886
BC	-3887
St	-3888
kh	-3889
xy	-3890
afi	-3891
ati	-3892
bit	-3893
oor	-3894
▁1,	-3895
▁Wr	-3896
back	-3897
blog	-3898
▁fre	-3899
▁pan	-3900
▁vir	-3901
aught	-3902
oking	-3903
uwait	-3904
▁Comp	-3905
▁Cour	-3906
▁Inst	-3907
▁kept	-3908
▁paid	-3909
▁pred	-3910
▁Green	-3911
▁Jesus	-3912
▁Women	-3913
▁liber	-3914
▁scene	-3915
▁stuff	-3916
▁Enable	-3917
▁comput	-3918
▁famous	-3919
▁insult	-3920
▁launch	-3921
▁Invalid	-3922
▁feeling	-3923
▁medical	-3924
▁Security	-3925
▁criminal	-3926
▁increase	-3927
▁networks	-3928
▁occurred	-3929
▁discussion	-3930
▁profession	-3931
,”	-3932
EN	-3933
IL	-3934
aa	-3935
ja	-3936
ns	-3937
▁*	-3938
aya	-3939
cow	-3940
emb	-3941
ena	-3942
esh	-3943
▁PM	-3944
road	-3945
sequ	-3946
time	-3947
▁Art	-3948
▁Has	-3949
▁Log	-3950
▁Pat	-3951
▁ens	-3952
ocent	-3953
owers	-3954
▁Down	-3955
▁Shah	-3956
▁cast	-3957
▁comb	-3958
▁diss	-3959
▁sche	-3960
▁spir	-3961
▁Sudan	-3962
▁chief	-3963
▁radio	-3964
▁terms	-3965
▁reject	-3966
▁writer	-3967
▁burning	-3968
▁climate	-3969
▁include	-3970
▁perfect	-3971
▁reached	-3972
▁stopped	-3973
▁Lebanese	-3974
▁powerful	-3975
▁struggle	-3976
▁conference	-3977
2.	-3978
UN	-3979
▁`	-3980
arb	-3981
ria	-3982
▁Ac	-3983
▁Ay	-3984
addy	-3985
▁Val	-3986
▁ain	-3987
▁gra	-3988
▁rum	-3989
aming	-3990
essor	-3991
▁fell	-3992
▁murd	-3993
▁phys	-3994
▁wear	-3995
apping	-3996
itable	-3997
▁angry	-3998
▁defin	-3999
▁Excuse	-4000
▁attend	-4001
▁caught	-4002
▁normal	-4003
▁propos	-4004
▁voices	-4005
▁Address	-4006
▁Tunisia	-4007
▁channel	-4008
▁deleted	-4009
▁digital	-4010
▁distrib	-4011
▁leading	-4012
▁propert	-4013
▁attacked	-4014
▁starting	-4015
▁transfer	-4016
▁completely	-4017
aph	-4018
aur	-4019
cer	-4020
iod	-4021
ipe	-4022
net	-4023
nic	-4024
▁Bo	-4025
▁OK	-4026
▁Raj	-4027
▁Unt	-4028
▁etc	-4029
▁pal	-4030
▁rid	-4031
itial	-4032
▁cook	-4033
▁impr	-4034
cuador	-4035
▁Cairo	-4036
▁Korea	-4037
▁march	-4038
▁proud	-4039
▁Change	-4040
▁Ethiop	-4041
▁Window	-4042
▁banned	-4043
▁needed	-4044
▁states	-4045
▁pressure	-4046
▁watching	-4047
▁character	-4048
!"	-4049
de	-4050
ما	-4051
oti	-4052
pet	-4053
pol	-4054
iban	-4055
illa	-4056
quot	-4057
uddy	-4058
▁Max	-4059
▁arm	-4060
▁mid	-4061
azing	-4062
enger	-4063
ulate	-4064
verty	-4065
▁Port	-4066
▁cred	-4067
▁font	-4068
▁hide	-4069
▁huge	-4070
▁thee	-4071
aching	-4072
▁David	-4073
▁Georg	-4074
▁funny	-4075
▁ideas	-4076
▁mater	-4077
▁moved	-4078
▁plant	-4079
▁river	-4080
▁strik	-4081
▁center	-4082
▁closed	-4083
▁joined	-4084
▁raised	-4085
▁remove	-4086
▁scared	-4087
▁seeing	-4088
▁poverty	-4089
▁suicide	-4090
▁progress	-4091
▁financial	-4092
▁earthquake	-4093
▁participants	-4094
▁ه	-4095
You	-4096
oes	-4097
oly	-4098
omp	-4099
▁ic	-4100
alys	-4101
izes	-4102
ores	-4103
akers	-4104
ethod	-4105
pathy	-4106
▁Very	-4107
▁brut	-4108
▁cars	-4109
▁club	-4110
▁risk	-4111
uclear	-4112
▁About	-4113
▁ended	-4114
▁magic	-4115
▁mercy	-4116
▁teach	-4117
athered	-4118
▁Argent	-4119
▁employ	-4120
▁establ	-4121
▁harass	-4122
▁stupid	-4123
▁Freedom	-4124
▁Perhaps	-4125
▁Western	-4126
▁efforts	-4127
▁perhaps	-4128
▁updates	-4129
▁believed	-4130
▁certainly	-4131
▁committed	-4132
▁everybody	-4133
▁background	-4134
As	-4135
ED	-4136
yn	-4137
ael	-4138
ahr	-4139
che	-4140
ipl	-4141
law	-4142
cing	-4143
iant	-4144
icip	-4145
▁Pen	-4146
▁Taj	-4147
▁unf	-4148
▁bird	-4149
▁damn	-4150
▁note	-4151
▁resc	-4152
▁rese	-4153
▁star	-4154
fortun	-4155
loaded	-4156
▁Latin	-4157
▁crazy	-4158
▁lived	-4159
▁views	-4160
ilities	-4161
▁During	-4162
▁Kazakh	-4163
▁denied	-4164
▁fellow	-4165
▁memory	-4166
▁notice	-4167
▁Develop	-4168
▁Several	-4169
▁farmers	-4170
▁quality	-4171
▁seconds	-4172
▁usually	-4173
▁Whatever	-4174
▁industry	-4175
▁peaceful	-4176
▁censorship	-4177
▁difference	-4178
▁initiative	-4179
▁Philippines	-4180
AC	-4181
gn	-4182
tr	-4183
ير	-4184
adu	-4185
aul	-4186
imb	-4187
rol	-4188
ulf	-4189
▁3.	-4190
▁Gl	-4191
▁`%	-4192
aker	-4193
pers	-4194
▁Bol	-4195
▁Fil	-4196
▁sea	-4197
abled	-4198
estic	-4199
▁2007	-4200
▁fans	-4201
▁harm	-4202
▁rise	-4203
mitted	-4204
stream	-4205
▁Activ	-4206
▁Again	-4207
▁Found	-4208
▁Frank	-4209
▁Three	-4210
▁Times	-4211
▁lines	-4212
▁wound	-4213
▁Colomb	-4214
▁Moscow	-4215
▁Street	-4216
▁Tehran	-4217
▁animal	-4218
▁forest	-4219
▁sudden	-4220
▁Display	-4221
▁License	-4222
▁Muhammad	-4223
▁addition	-4224
▁district	-4225
▁expected	-4226
▁thousand	-4227
▁Indonesia	-4228
▁demanding	-4229
▁reporting	-4230
▁sentenced	-4231
▁university	-4232
gg	-4233
ips	-4234
isc	-4235
ora	-4236
▁GV	-4237
▁Os	-4238
aked	-4239
ease	-4240
esty	-4241
okes	-4242
▁Bal	-4243
▁Doc	-4244
▁Mag	-4245
▁Pac	-4246
▁aid	-4247
▁pil	-4248
bassy	-4249
ously	-4250
▁Coun	-4251
▁Sale	-4252
▁Serb	-4253
▁Viet	-4254
▁base	-4255
▁clot	-4256
▁lies	-4257
▁loss	-4258
ildren	-4259
▁2012,	-4260
▁Peace	-4261
▁advoc	-4262
▁agree	-4263
▁influ	-4264
▁judge	-4265
▁pages	-4266
▁Kuwait	-4267
▁expert	-4268
▁govern	-4269
▁nearly	-4270
▁period	-4271
▁played	-4272
▁prices	-4273
▁Ecuador	-4274
▁Morocco	-4275
▁preview	-4276
▁sending	-4277
▁gathered	-4278
▁officers	-4279
▁reaction	-4280
▁straight	-4281
▁Australia	-4282
▁Revolution	-4283
▁appointment	-4284
▁individuals	-4285
uf	-4286
uv	-4287
”.	-4288
abb	-4289
ago	-4290
irm	-4291
rid	-4292
▁Mo	-4293
▁Ro	-4294
osed	-4295
rate	-4296
urch	-4297
▁198	-4298
▁Mil	-4299
▁bed	-4300
▁rob	-4301
▁wat	-4302
belie	-4303
inent	-4304
ining	-4305
riend	-4306
urday	-4307
▁Also	-4308
▁Gree	-4309
▁Once	-4310
▁Part	-4311
▁sens	-4312
parent	-4313
▁Earth	-4314
▁Elect	-4315
▁Kenya	-4316
▁Print	-4317
▁hopes	-4318
▁Config	-4319
▁German	-4320
▁issued	-4321
▁titled	-4322
iversary	-4323
▁disappe	-4324
▁Mohammed	-4325
▁Tunisian	-4326
▁brothers	-4327
▁revealed	-4328
omatically	-4329
▁Palestine	-4330
▁continued	-4331
▁describes	-4332
▁effective	-4333
▁providing	-4334
▁specified	-4335
AM	-4336
zz	-4337
arm	-4338
low	-4339
nes	-4340
▁Ur	-4341
appy	-4342
illy	-4343
ocol	-4344
rast	-4345
▁DVD	-4346
▁Eid	-4347
▁GDM	-4348
▁Mic	-4349
▁bod	-4350
Yemen	-4351
icted	-4352
▁Jama	-4353
▁Pass	-4354
▁Sant	-4355
▁Sher	-4356
▁cold	-4357
▁onto	-4358
▁park	-4359
▁root	-4360
ements	-4361
iamond	-4362
ucture	-4363
▁Black	-4364
▁Chile	-4365
▁Clear	-4366
▁House	-4367
▁breat	-4368
▁floor	-4369
▁homes	-4370
▁rules	-4371
▁style	-4372
▁Father	-4373
▁Uganda	-4374
▁figure	-4375
▁histor	-4376
▁looked	-4377
▁Current	-4378
▁forever	-4379
▁meaning	-4380
▁neither	-4381
▁reality	-4382
▁shouldn	-4383
▁sources	-4384
▁strange	-4385
▁Iranians	-4386
▁Saturday	-4387
▁standing	-4388
▁detention	-4389
▁Parliament	-4390
▁candidates	-4391
▁conditions	-4392
▁communication	-4393
ga	-4394
sa	-4395
▁إ	-4396
▁ق	-4397
awn	-4398
pes	-4399
▁60	-4400
▁Dan	-4401
▁Got	-4402
▁Sun	-4403
inals	-4404
ondon	-4405
vious	-4406
▁Shut	-4407
▁Harry	-4408
▁Leave	-4409
▁bless	-4410
▁forth	-4411
▁fully	-4412
▁guard	-4413
▁laugh	-4414
▁restr	-4415
▁signs	-4416
▁staff	-4417
▁store	-4418
▁Nobody	-4419
▁condem	-4420
▁safety	-4421
▁Default	-4422
▁Taliban	-4423
▁conclud	-4424
▁conduct	-4425
▁officer	-4426
▁refused	-4427
▁Moroccan	-4428
▁accident	-4429
▁festival	-4430
▁awareness	-4431
▁concerned	-4432
▁followers	-4433
▁implement	-4434
▁necessary	-4435
▁therefore	-4436
▁everywhere	-4437
▁interested	-4438
▁Certificate	-4439
▁conversation	-4440
▁configuration	-4441
'.	-4442
OW	-4443
yo	-4444
ون	-4445
mun	-4446
uit	-4447
▁21	-4448
brah	-4449
ilty	-4450
uing	-4451
▁Det	-4452
▁Hum	-4453
▁Rah	-4454
▁Sri	-4455
▁Sur	-4456
▁Ver	-4457
olute	-4458
▁Lank	-4459
▁Page	-4460
▁Time	-4461
▁Turk	-4462
▁feet	-4463
▁ment	-4464
▁prec	-4465
engers	-4466
esides	-4467
▁Court	-4468
▁Grand	-4469
▁Libya	-4470
▁minor	-4471
▁prior	-4472
▁waste	-4473
▁worse	-4474
▁anyway	-4475
▁attach	-4476
▁deaths	-4477
▁energy	-4478
▁lawyer	-4479
▁Vietnam	-4480
▁demands	-4481
▁innocent	-4482
▁explained	-4483
▁television	-4484
▁Information	-4485
▁photographs	-4486
It	-4487
Sy	-4488
ux	-4489
لي	-4490
asy	-4491
gyz	-4492
har	-4493
aren	-4494
aria	-4495
enez	-4496
hest	-4497
rgyz	-4498
well	-4499
▁mic	-4500
▁rap	-4501
▁ste	-4502
gency	-4503
orter	-4504
▁Coll	-4505
▁Hung	-4506
▁Next	-4507
▁cere	-4508
▁emot	-4509
▁forb	-4510
▁kick	-4511
▁meat	-4512
▁menu	-4513
▁Shall	-4514
▁categ	-4515
▁prime	-4516
▁prose	-4517
▁Associ	-4518
▁France	-4519
▁Kyrgyz	-4520
▁London	-4521
▁nature	-4522
▁sexual	-4523
▁showed	-4524
▁explain	-4525
▁holiday	-4526
▁install	-4527
▁unknown	-4528
▁Everyone	-4529
▁imprison	-4530
▁material	-4531
▁proposed	-4532
▁settings	-4533
▁agreement	-4534
▁commented	-4535
▁terrorist	-4536
▁opportunity	-4537
',	-4538
10	-4539
ات	-4540
rik	-4541
vey	-4542
▁Ha	-4543
idge	-4544
unch	-4545
▁Son	-4546
▁USA	-4547
▁lie	-4548
▁uns	-4549
atter	-4550
force	-4551
igned	-4552
ional	-4553
▁Burn	-4554
▁Head	-4555
▁fool	-4556
▁hair	-4557
▁hasn	-4558
▁race	-4559
▁seat	-4560
▁GNOME	-4561
▁board	-4562
▁broke	-4563
▁stick	-4564
anguage	-4565
issions	-4566
▁Democr	-4567
▁bodies	-4568
▁explos	-4569
▁guilty	-4570
▁method	-4571
▁resist	-4572
▁topics	-4573
▁careful	-4574
▁counter	-4575
▁dollars	-4576
▁forgive	-4577
▁impress	-4578
▁nuclear	-4579
▁wearing	-4580
▁European	-4581
▁millions	-4582
▁returned	-4583
▁strength	-4584
▁treatment	-4585
▁increasing	-4586
▁threatened	-4587
▁Development	-4588
▁significant	-4589
no	-4590
wr	-4591
ام	-4592
arc	-4593
how	-4594
iqu	-4595
kok	-4596
lla	-4597
irts	-4598
▁Reg	-4599
▁Tem	-4600
▁Tor	-4601
ashes	-4602
astic	-4603
iling	-4604
krain	-4605
stant	-4606
witch	-4607
▁Hind	-4608
▁Post	-4609
▁rate	-4610
▁ring	-4611
▁wind	-4612
▁Their	-4613
▁analy	-4614
▁anger	-4615
▁remem	-4616
▁south	-4617
▁trick	-4618
▁Center	-4619
▁Delete	-4620
▁Master	-4621
▁battle	-4622
▁consid	-4623
▁defend	-4624
▁origin	-4625
▁stated	-4626
▁Project	-4627
▁artists	-4628
▁central	-4629
▁economy	-4630
▁machine	-4631
▁options	-4632
▁pointed	-4633
▁posting	-4634
▁willing	-4635
▁Bloggers	-4636
▁contains	-4637
▁creating	-4638
▁electric	-4639
▁impossible	-4640
▁responsibility	-4641
ND	-4642
SE	-4643
aud	-4644
ini	-4645
phe	-4646
ugu	-4647
urb	-4648
▁2,	-4649
▁Ra	-4650
▁Ye	-4651
▁Ze	-4652
face	-4653
hold	-4654
iled	-4655
ktop	-4656
mail	-4657
xual	-4658
▁197	-4659
▁Air	-4660
▁cry	-4661
▁hel	-4662
▁max	-4663
▁tor	-4664
entle	-4665
icial	-4666
oving	-4667
reens	-4668
tered	-4669
under	-4670
▁Camp	-4671
▁Kill	-4672
▁Love	-4673
▁Sign	-4674
▁memo	-4675
▁migr	-4676
▁plug	-4677
▁sick	-4678
▁snow	-4679
ulture	-4680
▁Close	-4681
▁carry	-4682
▁fault	-4683
▁items	-4684
▁liter	-4685
▁north	-4686
▁plane	-4687
▁serve	-4688
▁commit	-4689
▁houses	-4690
▁widely	-4691
▁heavens	-4692
▁natural	-4693
▁promote	-4694
▁removed	-4695
▁Abdullah	-4696
▁identity	-4697
▁original	-4698
▁somebody	-4699
▁surprise	-4700
▁Egyptians	-4701
▁challenge	-4702
▁condition	-4703
▁discussed	-4704
▁transport	-4705
TP	-4706
ji	-4707
اب	-4708
”,	-4709
▁~	-4710
:00	-4711
bre	-4712
jad	-4713
rad	-4714
▁Cy	-4715
▁ut	-4716
ffee	-4717
oked	-4718
ribe	-4719
vere	-4720
▁Jud	-4721
▁Tog	-4722
▁din	-4723
acing	-4724
▁Brit	-4725
▁ISIS	-4726
▁Jose	-4727
▁Mail	-4728
▁Thou	-4729
▁rape	-4730
▁rice	-4731
▁rich	-4732
ifying	-4733
▁Alger	-4734
▁Under	-4735
▁lands	-4736
▁refer	-4737
▁tells	-4738
▁valid	-4739
enezuel	-4740
outhern	-4741
▁Commun	-4742
▁Editor	-4743
▁Korean	-4744
▁Middle	-4745
▁Others	-4746
▁Source	-4747
▁claims	-4748
▁higher	-4749
▁moving	-4750
ferences	-4751
▁amazing	-4752
▁appears	-4753
▁monitor	-4754
▁Exchange	-4755
▁Remember	-4756
▁carrying	-4757
▁computer	-4758
▁declared	-4759
▁specific	-4760
▁terrible	-4761
▁training	-4762
▁described	-4763
▁ourselves	-4764
▁tradition	-4765
▁protesting	-4766
▁anniversary	-4767
ري	-4768
Don	-4769
ano	-4770
avi	-4771
box	-4772
ela	-4773
▁--	-4774
aiti	-4775
atem	-4776
iple	-4777
oyal	-4778
unei	-4779
▁12,	-4780
▁Bas	-4781
▁Enc	-4782
▁Jam	-4783
▁Mir	-4784
▁Num	-4785
▁lib	-4786
▁lif	-4787
▁rev	-4788
▁على	-4789
ander	-4790
azine	-4791
elect	-4792
lands	-4793
▁Thai	-4794
▁blow	-4795
▁feed	-4796
▁goal	-4797
▁weak	-4798
▁Citiz	-4799
▁Video	-4800
▁blame	-4801
▁blast	-4802
▁entry	-4803
▁estim	-4804
▁truly	-4805
▁advert	-4806
▁camera	-4807
▁legisl	-4808
▁mosque	-4809
▁negoti	-4810
▁perman	-4811
▁spirit	-4812
▁territ	-4813
▁wealth	-4814
▁Mohamed	-4815
▁Pacific	-4816
▁setting	-4817
▁violent	-4818
▁although	-4819
▁critical	-4820
▁province	-4821
▁Something	-4822
▁mainstream	-4823
▁certificate	-4824
▁established	-4825
'?	-4826
IP	-4827
mi	-4828
adh	-4829
afe	-4830
erb	-4831
ius	-4832
mes	-4833
▁IC	-4834
▁Je	-4835
▁ep	-4836
adan	-4837
oned	-4838
osen	-4839
rief	-4840
wood	-4841
▁Inc	-4842
▁Met	-4843
▁Pan	-4844
▁Ren	-4845
▁Sen	-4846
▁kil	-4847
▁mut	-4848
▁tab	-4849
ahrir	-4850
arily	-4851
inter	-4852
itage	-4853
night	-4854
▁Rest	-4855
▁adop	-4856
▁fill	-4857
asures	-4858
father	-4859
igence	-4860
▁armed	-4861
▁blind	-4862
▁dance	-4863
▁explo	-4864
▁loved	-4865
▁rural	-4866
▁songs	-4867
imately	-4868
▁Online	-4869
▁broken	-4870
▁device	-4871
▁hidden	-4872
▁relief	-4873
▁signed	-4874
▁Council	-4875
▁animals	-4876
▁consequ	-4877
▁deliver	-4878
▁diamond	-4879
▁driving	-4880
▁oppress	-4881
▁silence	-4882
▁twitter	-4883
▁victory	-4884
▁walking	-4885
▁Venezuel	-4886
▁believes	-4887
▁concerns	-4888
▁criminals	-4889
▁documents	-4890
▁selection	-4891
▁generation	-4892
??	-4893
IDS	-4894
aba	-4895
ula	-4896
war	-4897
▁Id	-4898
▁Sk	-4899
▁Um	-4900
▁“%	-4901
oral	-4902
ster	-4903
▁Ins	-4904
▁Pri	-4905
▁bow	-4906
▁fan	-4907
▁reb	-4908
▁squ	-4909
ctors	-4910
inger	-4911
itely	-4912
ivity	-4913
▁Mahm	-4914
▁Type	-4915
▁boat	-4916
▁dust	-4917
▁shop	-4918
icient	-4919
inejad	-4920
itical	-4921
▁2011,	-4922
▁chose	-4923
▁forum	-4924
▁journ	-4925
▁plans	-4926
▁votes	-4927
itarian	-4928
▁Import	-4929
▁Really	-4930
▁Secret	-4931
▁Social	-4932
▁button	-4933
▁master	-4934
▁covered	-4935
▁manager	-4936
▁mission	-4937
▁planned	-4938
▁teacher	-4939
▁Children	-4940
▁neighbor	-4941
▁petition	-4942
▁practice	-4943
▁provides	-4944
▁research	-4945
▁surprised	-4946
▁Association	-4947
IF	-4948
MS	-4949
▁د	-4950
200	-4951
oms	-4952
ache	-4953
dict	-4954
lets	-4955
ours	-4956
oust	-4957
resp	-4958
▁Luc	-4959
▁Mat	-4960
▁Nav	-4961
▁Que	-4962
▁Qur	-4963
▁THE	-4964
▁Wow	-4965
▁flu	-4966
▁unc	-4967
eless	-4968
ented	-4969
iance	-4970
ifies	-4971
itary	-4972
onday	-4973
otten	-4974
▁Both	-4975
▁Disc	-4976
▁Edit	-4977
▁Kurd	-4978
▁Must	-4979
▁Shit	-4980
▁cash	-4981
▁edit	-4982
▁fate	-4983
▁kiss	-4984
ertain	-4985
isters	-4986
▁Water	-4987
▁avoid	-4988
▁enemy	-4989
▁games	-4990
▁noted	-4991
▁steal	-4992
▁School	-4993
▁Screen	-4994
▁appeal	-4995
▁chosen	-4996
▁helped	-4997
▁prefer	-4998
▁verily	-4999
▁voters	-5000
▁Bangkok	-5001
▁achieve	-5002
▁century	-5003
▁massive	-5004
▁ongoing	-5005
▁produce	-5006
▁sitting	-5007
▁torture	-5008
▁weapons	-5009
▁Mohammad	-5010
▁directly	-5011
▁feelings	-5012
▁ordinary	-5013
▁software	-5014
▁broadcast	-5015
▁governments	-5016
▁controversial	-5017
▁environmental	-5018
OP	-5019
do	-5020
هم	-5021
▁ش	-5022
egr	-5023
ibo	-5024
ira	-5025
och	-5026
olk	-5027
ova	-5028
ros	-5029
▁Av	-5030
▁Aw	-5031
▁Bu	-5032
▁Lu	-5033
adem	-5034
ania	-5035
iced	-5036
ille	-5037
mark	-5038
oken	-5039
rees	-5040
▁Kam	-5041
▁Ric	-5042
▁Sky	-5043
▁bug	-5044
▁fat	-5045
▁fle	-5046
▁وال	-5047
enges	-5048
eting	-5049
ipped	-5050
ropri	-5051
▁Pers	-5052
▁Prof	-5053
▁Text	-5054
▁evac	-5055
encies	-5056
ulated	-5057
▁Below	-5058
▁Boliv	-5059
▁Bring	-5060
▁Tajik	-5061
▁green	-5062
▁numer	-5063
▁talks	-5064
▁theme	-5065
onymous	-5066
pective	-5067
▁analys	-5068
▁brings	-5069
▁disapp	-5070
▁engine	-5071
▁missed	-5072
▁review	-5073
▁season	-5074
▁traged	-5075
▁voting	-5076
▁Nations	-5077
▁Through	-5078
▁located	-5079
▁organis	-5080
▁anywhere	-5081
▁contract	-5082
▁thoughts	-5083
▁criticism	-5084
▁protection	-5085
▁particularly	-5086
▁relationship	-5087
▁investigation	-5088
/%	-5089
AD	-5090
bag	-5091
iji	-5092
inn	-5093
ley	-5094
lie	-5095
omm	-5096
ulg	-5097
uzz	-5098
▁Ak	-5099
lood	-5100
orsi	-5101
ples	-5102
▁End	-5103
▁Ext	-5104
▁Tri	-5105
▁doz	-5106
▁eld	-5107
ables	-5108
ashed	-5109
atell	-5110
ected	-5111
ermin	-5112
erved	-5113
itled	-5114
umbai	-5115
▁Bank	-5116
▁Cons	-5117
▁Fore	-5118
▁Khan	-5119
▁Phot	-5120
▁auth	-5121
▁chat	-5122
▁icon	-5123
▁kidn	-5124
▁rare	-5125
ection	-5126
▁Asian	-5127
▁Daily	-5128
▁apart	-5129
▁faces	-5130
▁micro	-5131
▁mouth	-5132
▁quiet	-5133
▁roads	-5134
▁tools	-5135
▁trash	-5136
▁trees	-5137
▁Guatem	-5138
▁Ukrain	-5139
▁filled	-5140
▁unless	-5141
▁Without	-5142
▁cartoon	-5143
▁hearing	-5144
▁measure	-5145
▁mistake	-5146
▁replace	-5147
▁director	-5148
▁Everybody	-5149
▁authority	-5150
▁establish	-5151
▁Commission	-5152
▁electricity	-5153
▁experiences	-5154
▁administration	-5155
24	-5156
3)	-5157
Ab	-5158
DE	-5159
DAP	-5160
lym	-5161
▁29	-5162
▁Es	-5163
alls	-5164
cher	-5165
mary	-5166
plit	-5167
sein	-5168
▁Bad	-5169
▁Dar	-5170
▁Its	-5171
▁Tim	-5172
▁Try	-5173
▁URL	-5174
▁Yet	-5175
▁cop	-5176
▁ran	-5177
▁tun	-5178
▁vac	-5179
iment	-5180
lines	-5181
owser	-5182
▁Data	-5183
▁Tool	-5184
▁Turn	-5185
▁Used	-5186
▁drag	-5187
▁hath	-5188
▁jobs	-5189
▁lady	-5190
▁poet	-5191
▁shel	-5192
istics	-5193
uesday	-5194
▁Still	-5195
▁Think	-5196
▁destr	-5197
▁login	-5198
▁range	-5199
▁smart	-5200
▁tasks	-5201
▁uncle	-5202
▁Author	-5203
▁Monday	-5204
▁Should	-5205
▁bigger	-5206
▁bottom	-5207
▁easily	-5208
▁eating	-5209
▁ethnic	-5210
▁sounds	-5211
▁useful	-5212
▁Connect	-5213
▁confirm	-5214
▁contain	-5215
▁coordin	-5216
▁Cambodia	-5217
▁Colombia	-5218
▁function	-5219
▁candidate	-5220
▁otherwise	-5221
▁territory	-5222
▁worldwide	-5223
▁Foundation	-5224
▁supporting	-5225
▁demonstration	-5226
▁demonstrations	-5227
-8	-5228
UT	-5229
ae	-5230
▁ن	-5231
alt	-5232
▁Ir	-5233
▁Pu	-5234
▁la	-5235
amil	-5236
noon	-5237
▁Bus	-5238
▁Dig	-5239
▁Hol	-5240
▁Hur	-5241
▁Isn	-5242
▁Kat	-5243
▁Key	-5244
▁Mod	-5245
▁Ref	-5246
▁Tai	-5247
▁Tok	-5248
▁Wed	-5249
▁ess	-5250
▁rac	-5251
▁san	-5252
▁swe	-5253
Syria	-5254
ijing	-5255
point	-5256
▁Gold	-5257
▁Link	-5258
▁Nice	-5259
▁Stud	-5260
▁rout	-5261
▁sacr	-5262
▁wake	-5263
porary	-5264
▁Abdul	-5265
▁Click	-5266
▁Color	-5267
▁Count	-5268
▁abuse	-5269
▁dress	-5270
▁prove	-5271
▁Summit	-5272
▁closer	-5273
▁facing	-5274
▁regist	-5275
▁reward	-5276
▁scient	-5277
▁seemed	-5278
expected	-5279
▁Tuesday	-5280
▁discrim	-5281
▁limited	-5282
▁ordered	-5283
▁Director	-5284
▁articles	-5285
▁birthday	-5286
▁existing	-5287
▁favorite	-5288
▁speaking	-5289
▁confirmed	-5290
▁wonderful	-5291
fortunately	-5292
▁challenges	-5293
▁disappoint	-5294
IM	-5295
rd	-5296
اد	-5297
For	-5298
nel	-5299
ola	-5300
rat	-5301
uts	-5302
▁Jo	-5303
clus	-5304
oser	-5305
▁16,	-5306
▁Adv	-5307
▁Ask	-5308
▁Cam	-5309
▁Meh	-5310
▁Nic	-5311
▁pet	-5312
▁thy	-5313
▁الع	-5314
ffiti	-5315
▁Read	-5316
▁Wall	-5317
▁Yang	-5318
▁calm	-5319
▁hack	-5320
▁roof	-5321
ashion	-5322
ctions	-5323
friend	-5324
isions	-5325
iverse	-5326
orders	-5327
▁Organ	-5328
▁Saleh	-5329
▁Stand	-5330
▁cards	-5331
▁faced	-5332
▁medic	-5333
▁sight	-5334
▁smell	-5335
▁swear	-5336
▁voted	-5337
▁width	-5338
ultural	-5339
▁Mumbai	-5340
▁Server	-5341
▁altern	-5342
▁consum	-5343
▁damage	-5344
▁dreams	-5345
▁extrem	-5346
▁finish	-5347
▁modern	-5348
▁mostly	-5349
▁unique	-5350
cription	-5351
igration	-5352
▁airport	-5353
▁anybody	-5354
▁arrived	-5355
▁authors	-5356
▁average	-5357
▁charged	-5358
▁clothes	-5359
▁elected	-5360
▁fathers	-5361
▁imagine	-5362
▁improve	-5363
▁initial	-5364
▁keeping	-5365
▁managed	-5366
▁putting	-5367
▁Actually	-5368
▁Congress	-5369
▁Movement	-5370
▁apparent	-5371
▁becoming	-5372
▁contacts	-5373
▁features	-5374
▁included	-5375
▁produced	-5376
▁encourage	-5377
▁prominent	-5378
▁suggested	-5379
▁democratic	-5380
▁management	-5381
▁officially	-5382
▁previously	-5383
▁announcement	-5384
▁authentication	-5385
1.	-5386
OL	-5387
اء	-5388
يد	-5389
eda	-5390
ikh	-5391
▁8,	-5392
▁LJ	-5393
▁ru	-5394
▁ان	-5395
azan	-5396
inet	-5397
ugee	-5398
▁Lee	-5399
▁hat	-5400
▁obl	-5401
▁tro	-5402
anced	-5403
antic	-5404
leted	-5405
▁Game	-5406
▁Ital	-5407
▁boss	-5408
▁grab	-5409
▁ride	-5410
▁Qatar	-5411
▁White	-5412
▁basic	-5413
▁heavy	-5414
▁motiv	-5415
▁shame	-5416
▁title	-5417
▁Custom	-5418
▁apolog	-5419
▁coffee	-5420
▁double	-5421
▁driver	-5422
▁excuse	-5423
▁gentle	-5424
▁handle	-5425
▁starts	-5426
▁summer	-5427
▁talked	-5428
▁taught	-5429
▁Unknown	-5430
▁concept	-5431
▁context	-5432
▁disease	-5433
▁entered	-5434
▁focused	-5435
▁invalid	-5436
▁learned	-5437
▁visible	-5438
▁Interior	-5439
▁audience	-5440
▁bringing	-5441
▁property	-5442
▁proposal	-5443
▁regional	-5444
▁solution	-5445
▁incidents	-5446
▁celebration	-5447
5.	-5448
ML	-5449
PS	-5450
TV	-5451
UR	-5452
VE	-5453
ez	-5454
pa	-5455
bon	-5456
bye	-5457
ien	-5458
new	-5459
▁4,	-5460
▁IM	-5461
▁Mu	-5462
▁RT	-5463
▁ma	-5464
acle	-5465
acre	-5466
cell	-5467
edit	-5468
iary	-5469
mony	-5470
rang	-5471
vant	-5472
what	-5473
▁Abu	-5474
▁Boy	-5475
▁Rec	-5476
▁Sit	-5477
▁YOU	-5478
▁adm	-5479
▁bud	-5480
▁fed	-5481
▁glo	-5482
▁pus	-5483
▁sch	-5484
after	-5485
assan	-5486
isher	-5487
useum	-5488
▁Carl	-5489
▁Shar	-5490
▁astr	-5491
▁coal	-5492
▁earn	-5493
▁lear	-5494
▁quit	-5495
▁trip	-5496
▁wild	-5497
ancing	-5498
▁Chief	-5499
▁Civil	-5500
▁bitch	-5501
▁fresh	-5502
▁graph	-5503
▁plain	-5504
▁reven	-5505
▁sched	-5506
▁steps	-5507
▁turns	-5508
▁urban	-5509
amental	-5510
▁Little	-5511
▁circum	-5512
▁cooper	-5513
▁decide	-5514
▁marked	-5515
▁rescue	-5516
▁script	-5517
▁sector	-5518
▁Account	-5519
▁Beijing	-5520
▁Network	-5521
▁Someone	-5522
▁Turkish	-5523
▁journey	-5524
▁realize	-5525
▁soldier	-5526
▁turning	-5527
▁verdict	-5528
▁visited	-5529
▁worried	-5530
▁approach	-5531
▁compared	-5532
▁contents	-5533
▁mountain	-5534
▁numerous	-5535
▁buildings	-5536
▁expensive	-5537
▁photograp	-5538
▁criticized	-5539
▁newspapers	-5540
▁Ahmadinejad	-5541
▁Brotherhood	-5542
▁competition	-5543
▁participate	-5544
▁construction	-5545
CP	-5546
De	-5547
Kh	-5548
pm	-5549
تر	-5550
ني	-5551
وم	-5552
gor	-5553
▁6,	-5554
▁80	-5555
chan	-5556
chen	-5557
hand	-5558
itch	-5559
reme	-5560
▁300	-5561
▁500	-5562
▁Ann	-5563
▁Hus	-5564
▁Jim	-5565
▁Mac	-5566
▁Maj	-5567
▁Nas	-5568
▁Naz	-5569
▁Pop	-5570
▁ded	-5571
▁fix	-5572
▁mir	-5573
▁scr	-5574
lying	-5575
▁Beng	-5576
▁Bhut	-5577
▁Form	-5578
▁LDAP	-5579
▁Live	-5580
▁Paul	-5581
▁Tele	-5582
▁hung	-5583
▁keys	-5584
▁mere	-5585
▁suit	-5586
▁sust	-5587
active	-5588
astern	-5589
nesday	-5590
ursday	-5591
▁Press	-5592
▁Tokyo	-5593
▁Weibo	-5594
▁basis	-5595
▁draft	-5596
▁spend	-5597
▁taste	-5598
▁weird	-5599
essions	-5600
iveness	-5601
▁Health	-5602
▁Joseph	-5603
▁Serbia	-5604
▁Yemeni	-5605
▁agency	-5606
▁artist	-5607
▁desire	-5608
▁gender	-5609
▁header	-5610
▁honest	-5611
▁nobody	-5612
▁placed	-5613
▁prayer	-5614
▁resign	-5615
▁update	-5616
reenshot	-5617
▁amongst	-5618
▁helping	-5619
▁Thursday	-5620
▁appeared	-5621
▁negative	-5622
▁Christian	-5623
▁Wednesday	-5624
▁developed	-5625
▁emergency	-5626
▁Indonesian	-5627
▁importance	-5628
▁volunteers	-5629
▁Bangladeshi	-5630
▁destruction	-5631
AB	-5632
GO	-5633
Le	-5634
ais	-5635
gen	-5636
ida	-5637
iff	-5638
ils	-5639
mat	-5640
rav	-5641
val	-5642
you	-5643
▁4.	-5644
▁UK	-5645
▁ما	-5646
damn	-5647
kind	-5648
ucks	-5649
▁Ber	-5650
▁Den	-5651
▁Hor	-5652
▁Lab	-5653
▁Mao	-5654
▁Mur	-5655
▁Ret	-5656
▁bom	-5657
▁deg	-5658
▁tim	-5659
▁الح	-5660
araoh	-5661
arden	-5662
paren	-5663
▁Army	-5664
▁Mich	-5665
▁Year	-5666
▁blue	-5667
▁dipl	-5668
▁exit	-5669
▁prim	-5670
▁skin	-5671
▁susp	-5672
azeera	-5673
icking	-5674
orious	-5675
▁Local	-5676
▁Morsi	-5677
▁brain	-5678
▁buddy	-5679
▁crash	-5680
▁deeds	-5681
▁dying	-5682
▁mixed	-5683
▁recip	-5684
▁sides	-5685
▁stage	-5686
▁stuck	-5687
parency	-5688
▁Taiwan	-5689
▁afford	-5690
▁bloody	-5691
▁highly	-5692
▁leaves	-5693
▁offers	-5694
▁portal	-5695
▁prince	-5696
▁suffer	-5697
▁worksh	-5698
▁Finally	-5699
▁Mexican	-5700
▁Special	-5701
▁assault	-5702
▁belongs	-5703
▁clearly	-5704
▁comfort	-5705
▁contest	-5706
▁cricket	-5707
▁feature	-5708
▁matters	-5709
▁offered	-5710
▁partner	-5711
▁restaur	-5712
▁section	-5713
▁Messages	-5714
▁analysis	-5715
▁benefits	-5716
▁ceremony	-5717
▁collabor	-5718
▁opinions	-5719
▁Following	-5720
▁committee	-5721
▁completed	-5722
▁extremely	-5723
▁influence	-5724
▁Department	-5725
▁translation	-5726
.,	-5727
CH	-5728
EL	-5729
RA	-5730
Sa	-5731
To	-5732
jo	-5733
ru	-5734
yl	-5735
ور	-5736
▁x	-5737
bur	-5738
iya	-5739
osa	-5740
wer	-5741
▁3,	-5742
▁70	-5743
▁9,	-5744
▁CH	-5745
enda	-5746
eter	-5747
host	-5748
list	-5749
odes	-5750
reci	-5751
term	-5752
vice	-5753
▁Big	-5754
▁Bye	-5755
▁Mel	-5756
▁Pot	-5757
▁hey	-5758
▁lad	-5759
▁sin	-5760
▁tea	-5761
▁veh	-5762
aches	-5763
asser	-5764
avior	-5765
ights	-5766
▁Arch	-5767
▁Bulg	-5768
▁Cuba	-5769
▁Fiji	-5770
▁Mart	-5771
▁dock	-5772
▁fort	-5773
▁impl	-5774
▁slog	-5775
▁wave	-5776
ercial	-5777
struct	-5778
ternal	-5779
▁2012.	-5780
▁Haiti	-5781
▁hotel	-5782
▁marry	-5783
▁spark	-5784
viously	-5785
▁Always	-5786
▁integr	-5787
▁planet	-5788
▁supply	-5789
atellite	-5790
▁Mahmoud	-5791
▁Nigeria	-5792
▁Options	-5793
▁billion	-5794
▁conserv	-5795
▁failure	-5796
▁objects	-5797
▁outlets	-5798
▁passing	-5799
▁selling	-5800
▁threats	-5801
▁totally	-5802
▁weekend	-5803
▁Password	-5804
▁absolute	-5805
▁channels	-5806
▁heritage	-5807
▁measures	-5808
▁memories	-5809
▁products	-5810
▁separate	-5811
▁afternoon	-5812
▁direction	-5813
▁forbidden	-5814
▁potential	-5815
▁signature	-5816
▁Kazakhstan	-5817
▁associated	-5818
▁commercial	-5819
▁passengers	-5820
▁production	-5821
▁fundamental	-5822
ET	-5823
II	-5824
OM	-5825
ba	-5826
بي	-5827
500	-5828
Add	-5829
anz	-5830
arg	-5831
arr	-5832
bek	-5833
ids	-5834
ika	-5835
isf	-5836
ona	-5837
rep	-5838
see	-5839
▁90	-5840
▁TO	-5841
▁ge	-5842
alem	-5843
aped	-5844
eous	-5845
erto	-5846
olve	-5847
owed	-5848
▁27,	-5849
▁Abb	-5850
▁Ash	-5851
▁Bre	-5852
▁Han	-5853
▁Rel	-5854
▁Sil	-5855
▁Tob	-5856
▁row	-5857
▁sen	-5858
▁tag	-5859
arrow	-5860
asion	-5861
embly	-5862
gment	-5863
marks	-5864
ounds	-5865
rastr	-5866
tings	-5867
▁Olym	-5868
▁Rece	-5869
▁Sand	-5870
▁Step	-5871
▁User	-5872
▁acts	-5873
▁arms	-5874
▁fuel	-5875
▁gods	-5876
▁guns	-5877
▁roll	-5878
▁sees	-5879
▁virt	-5880
Americ	-5881
acedon	-5882
addafi	-5883
idding	-5884
▁2013,	-5885
▁Happy	-5886
▁Lanka	-5887
▁Quick	-5888
▁Uncle	-5889
▁chick	-5890
▁glass	-5891
▁label	-5892
▁likes	-5893
▁lucky	-5894
▁lying	-5895
▁miles	-5896
▁motor	-5897
erciful	-5898
osexual	-5899
▁Econom	-5900
▁League	-5901
▁Surely	-5902
▁Turkey	-5903
▁belief	-5904
▁brutal	-5905
▁execut	-5906
▁guards	-5907
▁losing	-5908
▁mainly	-5909
▁manner	-5910
▁weapon	-5911
ropriate	-5912
▁benefit	-5913
▁figures	-5914
▁invited	-5915
▁loading	-5916
▁minimum	-5917
▁reminds	-5918
▁tragedy	-5919
▁updated	-5920
▁weather	-5921
▁Festival	-5922
▁diamonds	-5923
▁domestic	-5924
▁entitled	-5925
▁graffiti	-5926
▁identify	-5927
▁patients	-5928
▁planning	-5929
▁reminder	-5930
▁uploaded	-5931
▁Argentina	-5932
▁allegedly	-5933
▁estimated	-5934
▁requested	-5935
▁resources	-5936
▁terrorism	-5937
▁journalism	-5938
▁celebrating	-5939
▁considering	-5940
▁documentary	-5941
▁experienced	-5942
▁Palestinians	-5943
▁consequences	-5944
▁independence	-5945
▁successfully	-5946
6.	-5947
Ed	-5948
LA	-5949
Re	-5950
▁ج	-5951
All	-5952
ava	-5953
bey	-5954
raf	-5955
ras	-5956
▁%2	-5957
▁7,	-5958
▁Ba	-5959
abul	-5960
aken	-5961
irty	-5962
onom	-5963
rier	-5964
ront	-5965
▁14,	-5966
▁15,	-5967
▁BBC	-5968
▁Cat	-5969
▁GNU	-5970
▁Men	-5971
▁Mun	-5972
▁الس	-5973
Egypt	-5974
ucker	-5975
▁Budd	-5976
▁Kash	-5977
▁Know	-5978
▁Path	-5979
▁Size	-5980
▁Trin	-5981
▁acqu	-5982
▁clip	-5983
▁disp	-5984
▁outr	-5985
arters	-5986
orters	-5987
▁Files	-5988
▁Mount	-5989
▁Paris	-5990
▁Peter	-5991
▁Rober	-5992
▁Roman	-5993
▁agric	-5994
▁coast	-5995
▁displ	-5996
▁doors	-5997
▁guide	-5998
▁model	-5999
▁scale	-6000
▁schol	-6001
▁urged	-6002
ryption	-6003
▁Brunei	-6004
▁Saving	-6005
▁System	-6006
▁Tahrir	-6007
▁abroad	-6008
▁secure	-6009
▁signal	-6010
▁spades	-6011
▁unable	-6012
ological	-6013
▁Macedon	-6014
▁Prophet	-6015
▁opening	-6016
▁publish	-6017
▁windows	-6018
▁agencies	-6019
▁creative	-6020
▁disbelie	-6021
▁elements	-6022
▁flooding	-6023
▁includes	-6024
▁suddenly	-6025
▁targeted	-6026
▁Committee	-6027
▁campaigns	-6028
▁concludes	-6029
▁celebrated	-6030
▁discovered	-6031
▁harassment	-6032
▁questioned	-6033
▁yourselves	-6034
▁permanently	-6035
▁institutions	-6036
▁neighborhood	-6037
▁professional	-6038
▁automatically	-6039
.)	-6040
60	-6041
NA	-6042
Pr	-6043
ko	-6044
vi	-6045
ذا	-6046
agu	-6047
apt	-6048
auc	-6049
iri	-6050
ito	-6051
▁(.	-6052
▁Sl	-6053
aghd	-6054
conf	-6055
fall	-6056
irut	-6057
obia	-6058
outs	-6059
oves	-6060
part	-6061
rial	-6062
with	-6063
▁Bet	-6064
▁Hos	-6065
▁Mas	-6066
▁NGO	-6067
▁Nor	-6068
▁Pos	-6069
▁Sab	-6070
▁Sah	-6071
▁Som	-6072
▁ble	-6073
▁cow	-6074
▁hab	-6075
▁rat	-6076
Islam	-6077
ascus	-6078
erbai	-6079
ucing	-6080
▁Life	-6081
▁Omar	-6082
▁Rich	-6083
▁Week	-6084
▁emph	-6085
▁fake	-6086
▁gate	-6087
▁iron	-6088
▁milk	-6089
▁sand	-6090
▁wedd	-6091
icious	-6092
ionate	-6093
screen	-6094
▁Assad	-6095
▁Delhi	-6096
▁Greek	-6097
▁brave	-6098
▁brief	-6099
▁cloud	-6100
▁frame	-6101
▁frust	-6102
▁grant	-6103
▁heads	-6104
▁proof	-6105
▁rough	-6106
▁toler	-6107
aration	-6108
ception	-6109
hington	-6110
orthern	-6111
▁Attach	-6112
▁Before	-6113
▁Rising	-6114
▁burned	-6115
▁remote	-6116
▁saving	-6117
▁scream	-6118
▁submit	-6119
▁British	-6120
▁Citizen	-6121
▁Georgia	-6122
▁ability	-6123
▁besides	-6124
▁experts	-6125
▁highest	-6126
▁proceed	-6127
▁reacted	-6128
▁strikes	-6129
▁warning	-6130
▁Document	-6131
▁captured	-6132
▁constant	-6133
▁exchange	-6134
▁infrastr	-6135
▁magazine	-6136
▁possibly	-6137
▁programs	-6138
▁southern	-6139
▁suffered	-6140
▁villages	-6141
ifications	-6142
▁Hungarian	-6143
▁Sometimes	-6144
▁arguments	-6145
▁assistance	-6146
▁publishing	-6147
▁reportedly	-6148
▁translated	-6149
▁destination	-6150
▁participation	-6151
▁discrimination	-6152
1:	-6153
Am	-6154
Op	-6155
je	-6156
uj	-6157
ست	-6158
ود	-6159
‪#	-6160
bus	-6161
gin	-6162
hus	-6163
iel	-6164
loc	-6165
oft	-6166
rem	-6167
vin	-6168
win	-6169
▁NO	-6170
▁Ok	-6171
▁عن	-6172
Gaza	-6173
aded	-6174
agic	-6175
imal	-6176
itan	-6177
king	-6178
orce	-6179
oses	-6180
▁11,	-6181
▁26,	-6182
▁Hen	-6183
▁Hmm	-6184
▁Huh	-6185
▁Inf	-6186
▁Jer	-6187
▁KDE	-6188
▁Naj	-6189
▁Nat	-6190
▁Pap	-6191
▁Way	-6192
▁Won	-6193
▁dow	-6194
▁opt	-6195
▁psy	-6196
▁roy	-6197
▁الأ	-6198
athan	-6199
rieve	-6200
uries	-6201
verse	-6202
▁Audi	-6203
▁Chen	-6204
▁Note	-6205
▁Oper	-6206
▁Said	-6207
▁Stat	-6208
▁Such	-6209
▁Togg	-6210
▁Zamb	-6211
▁bare	-6212
▁duty	-6213
▁qual	-6214
▁rein	-6215
▁wage	-6216
imedia	-6217
odcast	-6218
▁2013.	-6219
▁2014.	-6220
▁Among	-6221
▁Filip	-6222
▁Iraqi	-6223
▁Short	-6224
▁Table	-6225
▁Union	-6226
▁Voice	-6227
▁birds	-6228
▁click	-6229
▁fired	-6230
▁grass	-6231
▁reads	-6232
▁speed	-6233
▁spoke	-6234
ousands	-6235
▁Action	-6236
▁Beirut	-6237
▁Canada	-6238
▁Choose	-6239
▁Malawi	-6240
▁arrive	-6241
▁owners	-6242
▁paying	-6243
▁picked	-6244
▁poster	-6245
▁prompt	-6246
▁speaks	-6247
▁toward	-6248
ximately	-6249
▁Charlie	-6250
▁Pharaoh	-6251
▁Ramadan	-6252
▁clashes	-6253
▁college	-6254
▁enabled	-6255
▁enemies	-6256
▁granted	-6257
▁greater	-6258
▁kingdom	-6259
▁package	-6260
▁profile	-6261
▁require	-6262
▁treated	-6263
▁univers	-6264
▁breaking	-6265
▁opportun	-6266
▁physical	-6267
▁tweeting	-6268
▁Yesterday	-6269
▁celebrate	-6270
▁dictators	-6271
▁Kyrgyzstan	-6272
▁intelligence	-6273
IR	-6274
hy	-6275
ول	-6276
Ass	-6277
Man	-6278
awa	-6279
iva	-6280
ste	-6281
▁Aj	-6282
▁Ow	-6283
▁‪#	-6284
!!!!	-6285
...?	-6286
Free	-6287
acks	-6288
evin	-6289
iana	-6290
iang	-6291
ifts	-6292
pass	-6293
▁30,	-6294
▁Div	-6295
▁Dom	-6296
▁Fif	-6297
▁Jul	-6298
▁Leg	-6299
▁Rog	-6300
▁Vis	-6301
▁cab	-6302
▁pig	-6303
▁rad	-6304
▁van	-6305
agues	-6306
ength	-6307
erves	-6308
iform	-6309
phone	-6310
print	-6311
quest	-6312
ulous	-6313
umped	-6314
write	-6315
▁2.0)	-6316
▁AIDS	-6317
▁Club	-6318
▁Damn	-6319
▁Date	-6320
▁Task	-6321
▁dism	-6322
▁ends	-6323
▁gift	-6324
▁jump	-6325
▁male	-6326
▁mort	-6327
▁push	-6328
▁runs	-6329
▁zero	-6330
action	-6331
angers	-6332
commun	-6333
▁2014,	-6334
▁Spain	-6335
▁brand	-6336
▁evacu	-6337
▁gedit	-6338
▁ignor	-6339
▁innov	-6340
▁labor	-6341
▁pride	-6342
▁prost	-6343
▁walls	-6344
▁witch	-6345
▁withd	-6346
▁Island	-6347
▁actual	-6348
▁astray	-6349
▁beauty	-6350
▁behalf	-6351
▁causes	-6352
▁credit	-6353
▁delive	-6354
▁emphas	-6355
▁escape	-6356
▁headed	-6357
▁invite	-6358
▁poison	-6359
▁severe	-6360
▁termin	-6361
▁ancient	-6362
▁appreci	-6363
▁carried	-6364
▁doctors	-6365
▁persons	-6366
▁repress	-6367
▁therein	-6368
▁torment	-6369
▁Armenian	-6370
▁designed	-6371
▁dialogue	-6372
▁finished	-6373
▁informed	-6374
▁learning	-6375
▁medicine	-6376
▁multiple	-6377
▁prepared	-6378
▁promises	-6379
▁stations	-6380
▁teaching	-6381
▁happiness	-6382
▁mountains	-6383
▁Washington	-6384
▁perspective	-6385
▁infrastructure	-6386
12	-6387
15	-6388
Af	-6389
Do	-6390
fl	-6391
zh	-6392
ón	-6393
▁\	-6394
aki	-6395
ems	-6396
icy	-6397
ios	-6398
lad	-6399
ney	-6400
rer	-6401
▁(_	-6402
▁HT	-6403
▁Hy	-6404
▁IN	-6405
▁Li	-6406
▁Uz	-6407
abil	-6408
ashi	-6409
fire	-6410
oted	-6411
rant	-6412
rawn	-6413
▁24,	-6414
▁28,	-6415
▁Uns	-6416
▁WAR	-6417
▁cup	-6418
▁vig	-6419
agers	-6420
assin	-6421
igger	-6422
ocket	-6423
rated	-6424
rence	-6425
wered	-6426
▁Didn	-6427
▁Five	-6428
▁Fund	-6429
▁Hope	-6430
▁Land	-6431
▁Mill	-6432
▁Prov	-6433
▁bast	-6434
▁cler	-6435
▁deny	-6436
▁epis	-6437
▁glad	-6438
▁neck	-6439
▁swim	-6440
▁tong	-6441
arling	-6442
ignity	-6443
rypted	-6444
▁2009,	-6445
▁Guard	-6446
▁Liber	-6447
▁Phone	-6448
▁Trust	-6449
▁clubs	-6450
▁consc	-6451
▁disag	-6452
▁drugs	-6453
▁filed	-6454
▁frequ	-6455
▁loyal	-6456
▁panel	-6457
▁prize	-6458
▁seats	-6459
▁solve	-6460
▁stood	-6461
▁super	-6462
ictions	-6463
stances	-6464
stitute	-6465
▁Bhutan	-6466
▁Humans	-6467
▁Puerto	-6468
▁allows	-6469
▁budget	-6470
▁compet	-6471
▁forgot	-6472
▁pieces	-6473
▁prohib	-6474
▁rising	-6475
▁silent	-6476
▁Azerbai	-6477
▁Congrat	-6478
▁Justice	-6479
▁Michael	-6480
▁Protest	-6481
▁Windows	-6482
▁closing	-6483
▁dropped	-6484
▁follows	-6485
▁refugee	-6486
▁scandal	-6487
▁seeking	-6488
▁watched	-6489
▁wonders	-6490
▁activity	-6491
▁argument	-6492
▁canceled	-6493
▁greatest	-6494
▁inspired	-6495
▁Brazilian	-6496
▁Guatemala	-6497
▁Malaysian	-6498
▁Professor	-6499
▁administr	-6500
▁complaint	-6501
▁correctly	-6502
▁forgotten	-6503
▁increased	-6504
▁installed	-6505
▁relatives	-6506
▁responded	-6507
▁righteous	-6508
▁definitely	-6509
▁interviews	-6510
▁alternative	-6511
▁highlighted	-6512
▁participated	-6513
▁transparency	-6514
▁understanding	-6515
3,	-6516
An	-6517
Bl	-6518
Go	-6519
da	-6520
eh	-6521
pre	-6522
sid	-6523
tle	-6524
zer	-6525
▁(2	-6526
Bang	-6527
This	-6528
achi	-6529
alty	-6530
arks	-6531
cean	-6532
iman	-6533
ouch	-6534
▁25,	-6535
▁McC	-6536
▁Old	-6537
▁Ray	-6538
▁Rom	-6539
▁Suu	-6540
▁Sym	-6541
▁Ter	-6542
▁Upd	-6543
▁joy	-6544
▁الش	-6545
aling	-6546
arant	-6547
aters	-6548
ewish	-6549
heast	-6550
onent	-6551
▁Cost	-6552
▁Forg	-6553
▁Four	-6554
▁Priv	-6555
▁Vict	-6556
▁defe	-6557
▁mons	-6558
▁raid	-6559
▁sake	-6560
▁thus	-6561
▁warm	-6562
▁whis	-6563
▁Ghana	-6564
▁Radio	-6565
▁Ugand	-6566
▁alleg	-6567
▁camer	-6568
▁chain	-6569
▁drone	-6570
▁encod	-6571
▁exhib	-6572
▁feels	-6573
▁ghost	-6574
▁knock	-6575
▁oblig	-6576
▁spell	-6577
▁usage	-6578
mission	-6579
respond	-6580
ruption	-6581
▁Church	-6582
▁Hassan	-6583
▁Recent	-6584
▁Second	-6585
▁bullet	-6586
▁desper	-6587
▁dinner	-6588
▁flying	-6589
▁growth	-6590
▁heaven	-6591
▁hiding	-6592
▁immigr	-6593
▁orders	-6594
▁plugin	-6595
▁recomm	-6596
▁repeat	-6597
▁sacrif	-6598
▁ticket	-6599
▁visual	-6600
▁worker	-6601
▁Italian	-6602
▁consult	-6603
▁excited	-6604
▁letters	-6605
▁suspect	-6606
▁underst	-6607
▁uniform	-6608
▁wedding	-6609
▁wounded	-6610
▁Download	-6611
▁behavior	-6612
▁changing	-6613
▁policies	-6614
▁reaching	-6615
▁resident	-6616
▁standard	-6617
▁professor	-6618
▁somewhere	-6619
▁suffering	-6620
▁volunteer	-6621
▁Tajikistan	-6622
▁characters	-6623
▁surrounded	-6624
▁initiatives	-6625
▁Unfortunately	-6626
4)	-6627
DP	-6628
GB	-6629
He	-6630
PP	-6631
ST	-6632
ui	-6633
Net	-6634
azz	-6635
lan	-6636
obi	-6637
ris	-6638
▁لا	-6639
abad	-6640
aman	-6641
asia	-6642
gust	-6643
iest	-6644
inct	-6645
lers	-6646
otic	-6647
rass	-6648
rene	-6649
rets	-6650
▁Bay	-6651
▁Cop	-6652
▁Fed	-6653
▁Kal	-6654
▁Nov	-6655
▁Sad	-6656
▁Sus	-6657
▁cas	-6658
▁dry	-6659
▁fit	-6660
▁mix	-6661
▁الت	-6662
agram	-6663
ching	-6664
ingly	-6665
pring	-6666
▁Bill	-6667
▁Long	-6668
▁Pict	-6669
▁Team	-6670
▁flow	-6671
▁guid	-6672
▁obey	-6673
▁rall	-6674
▁situ	-6675
aganda	-6676
anging	-6677
asters	-6678
brahim	-6679
ective	-6680
ustice	-6681
▁Arabs	-6682
▁Queen	-6683
▁Value	-6684
▁abort	-6685
▁cyber	-6686
▁deleg	-6687
▁lower	-6688
▁older	-6689
▁queen	-6690
▁trade	-6691
iration	-6692
ulating	-6693
▁Forget	-6694
▁Header	-6695
▁Number	-6696
▁advant	-6697
▁aspect	-6698
▁beaten	-6699
▁bother	-6700
▁ensure	-6701
▁hoping	-6702
▁legend	-6703
▁lesson	-6704
▁manage	-6705
▁remark	-6706
▁schema	-6707
▁sought	-6708
▁troops	-6709
▁warned	-6710
quarters	-6711
ribution	-6712
▁Armenia	-6713
▁Disable	-6714
▁Gaddafi	-6715
▁Germany	-6716
▁Jazeera	-6717
▁alright	-6718
▁browser	-6719
▁consist	-6720
▁fashion	-6721
▁heading	-6722
▁kilomet	-6723
▁mankind	-6724
▁patient	-6725
▁prayers	-6726
▁science	-6727
▁systems	-6728
▁winning	-6729
▁Bahraini	-6730
▁Contacts	-6731
▁Ethiopia	-6732
▁Independ	-6733
▁creation	-6734
▁determin	-6735
▁humanity	-6736
▁pleasure	-6737
▁properly	-6738
▁reporter	-6739
▁spending	-6740
▁Cambodian	-6741
▁Configure	-6742
▁Thousands	-6743
▁Venezuela	-6744
▁appointed	-6745
▁civilians	-6746
▁delivered	-6747
▁displayed	-6748
▁electoral	-6749
▁searching	-6750
▁additional	-6751
▁introduced	-6752
▁networking	-6753
▁surrounding	-6754
▁threatening	-6755
▁Congratulations	-6756
6,	-6757
8.	-6758
NN	-6759
وب	-6760
And	-6761
Ind	-6762
Yes	-6763
ema	-6764
eps	-6765
equ	-6766
iro	-6767
roc	-6768
spe	-6769
uri	-6770
wal	-6771
▁AM	-6772
▁ST	-6773
Open	-6774
Save	-6775
aint	-6776
amin	-6777
anch	-6778
apse	-6779
aran	-6780
atab	-6781
fast	-6782
ican	-6783
viet	-6784
▁150	-6785
▁Deb	-6786
▁Dec	-6787
▁Gal	-6788
▁Lad	-6789
▁Ten	-6790
▁cha	-6791
▁cho	-6792
▁pra	-6793
▁rot	-6794
bered	-6795
icing	-6796
rayed	-6797
ronic	-6798
uters	-6799
▁2000	-6800
▁Bash	-6801
▁Dist	-6802
▁Fort	-6803
▁Mand	-6804
▁Mous	-6805
▁Sina	-6806
▁Whoa	-6807
▁Zein	-6808
▁bell	-6809
▁elim	-6810
▁gang	-6811
▁hole	-6812
▁inev	-6813
▁mask	-6814
▁mock	-6815
▁scen	-6816
▁tens	-6817
incess	-6818
itchen	-6819
▁Franc	-6820
▁Hurry	-6821
▁Techn	-6822
▁Until	-6823
▁accus	-6824
▁fonts	-6825
▁greet	-6826
▁horiz	-6827
▁idiot	-6828
▁indic	-6829
▁newly	-6830
▁owner	-6831
▁princ	-6832
▁reply	-6833
▁shout	-6834
▁viral	-6835
▁Bangla	-6836
▁Person	-6837
▁Symbol	-6838
▁Though	-6839
▁Yangon	-6840
▁agents	-6841
▁agreed	-6842
▁bright	-6843
▁depart	-6844
▁domain	-6845
▁enthus	-6846
▁favour	-6847
▁fought	-6848
▁height	-6849
▁locked	-6850
▁observ	-6851
▁phones	-6852
▁reduce	-6853
▁spaces	-6854
▁string	-6855
▁struck	-6856
aughters	-6857
▁Charles	-6858
▁Embassy	-6859
▁Empathy	-6860
▁Kingdom	-6861
▁Writing	-6862
▁drivers	-6863
▁effects	-6864
▁embassy	-6865
▁kidding	-6866
▁obvious	-6867
▁suppose	-6868
▁western	-6869
▁Damascus	-6870
▁approved	-6871
▁covering	-6872
▁darkness	-6873
▁instance	-6874
▁massacre	-6875
▁realized	-6876
▁trending	-6877
government	-6878
▁Americans	-6879
▁Secretary	-6880
▁attracted	-6881
▁continent	-6882
▁crackdown	-6883
▁entertain	-6884
▁wondering	-6885
▁colleagues	-6886
▁collection	-6887
▁eventually	-6888
▁identified	-6889
▁imprisoned	-6890
▁resistance	-6891
▁violations	-6892
▁appropriate	-6893
▁performance	-6894
▁opportunities	-6895
▁participating	-6896
70	-6897
Ad	-6898
My	-6899
On	-6900
ca	-6901
dy	-6902
sm	-6903
عت	-6904
▁u	-6905
IME	-6906
New	-6907
Who	-6908
abi	-6909
ams	-6910
but	-6911
hem	-6912
oli	-6913
rig	-6914
uma	-6915
▁BD	-6916
▁Ta	-6917
aved	-6918
greg	-6919
life	-6920
ston	-6921
ties	-6922
uled	-6923
urre	-6924
▁10,	-6925
▁Bug	-6926
▁Hab	-6927
▁Had	-6928
▁Haz	-6929
▁Hon	-6930
▁Kos	-6931
▁Kyi	-6932
▁Lar	-6933
▁era	-6934
▁jun	-6935
▁nom	-6936
▁typ	-6937
▁ult	-6938
arter	-6939
asero	-6940
claim	-6941
ether	-6942
ulner	-6943
▁Full	-6944
▁Jane	-6945
▁Soft	-6946
▁Soon	-6947
▁Word	-6948
▁band	-6949
▁calc	-6950
▁coup	-6951
▁cous	-6952
▁dare	-6953
▁dies	-6954
▁disk	-6955
▁dogs	-6956
▁figh	-6957
▁firm	-6958
▁fulf	-6959
▁pret	-6960
▁teen	-6961
▁terr	-6962
called	-6963
orrect	-6964
usalem	-6965
▁2009.	-6966
▁Later	-6967
▁Putin	-6968
▁River	-6969
▁bound	-6970
▁bread	-6971
▁champ	-6972
▁costs	-6973
▁giant	-6974
▁legit	-6975
▁purch	-6976
▁ridic	-6977
▁stars	-6978
▁Forces	-6979
▁Jamaat	-6980
▁Kenyan	-6981
▁adding	-6982
▁arrang	-6983
▁corner	-6984
▁crying	-6985
▁detain	-6986
▁fields	-6987
▁floods	-6988
▁humans	-6989
▁length	-6990
▁levels	-6991
▁movies	-6992
▁museum	-6993
▁native	-6994
▁nearby	-6995
▁rumors	-6996
▁spoken	-6997
▁spring	-6998
▁switch	-6999
▁thread	-7000
▁tongue	-7001
▁tracks	-7002
▁winner	-7003
▁winter	-7004
ographic	-7005
▁Command	-7006
▁Desktop	-7007
▁Hussein	-7008
▁becomes	-7009
▁bombing	-7010
▁disturb	-7011
▁edition	-7012
▁enforce	-7013
▁exposed	-7014
▁lawyers	-7015
▁methods	-7016
▁plastic	-7017
▁players	-7018
▁restart	-7019
▁singing	-7020
▁Business	-7021
▁Location	-7022
▁attended	-7023
▁everyday	-7024
▁hashtags	-7025
▁murdered	-7026
▁suggests	-7027
▁collected	-7028
▁headlines	-7029
▁intention	-7030
▁protected	-7031
▁spreading	-7032
▁standards	-7033
▁temporary	-7034
▁Australian	-7035
▁businesses	-7036
▁expressing	-7037
▁successful	-7038
▁connections	-7039
▁controversy	-7040
▁discussions	-7041
▁developments	-7042
▁communications	-7043
▁representative	-7044
.1	-7045
4,	-7046
Be	-7047
EC	-7048
If	-7049
Sc	-7050
di	-7051
fe	-7052
lt	-7053
nc	-7054
عد	-7055
وق	-7056
يا	-7057
▁<	-7058
▁ص	-7059
/11	-7060
asa	-7061
lle	-7062
nom	-7063
pir	-7064
she	-7065
van	-7066
▁MP	-7067
▁Py	-7068
▁ec	-7069
▁لل	-7070
Arab	-7071
agon	-7072
ford	-7073
oles	-7074
olic	-7075
poli	-7076
quer	-7077
tion	-7078
umbn	-7079
vent	-7080
whel	-7081
▁Bah	-7082
▁Bil	-7083
▁Bro	-7084
▁Cle	-7085
▁Dal	-7086
▁Hun	-7087
▁Jon	-7088
▁Ker	-7089
▁Kim	-7090
▁Kon	-7091
▁Nag	-7092
▁Ros	-7093
▁Tab	-7094
▁Van	-7095
▁dim	-7096
▁egg	-7097
▁odd	-7098
▁suc	-7099
▁tur	-7100
▁ven	-7101
ardon	-7102
attah	-7103
rival	-7104
▁Easy	-7105
▁Fair	-7106
▁Girl	-7107
▁Hang	-7108
▁Prom	-7109
▁chap	-7110
▁cycl	-7111
▁east	-7112
▁fasc	-7113
▁grew	-7114
▁moon	-7115
▁norm	-7116
▁poly	-7117
▁pros	-7118
▁tick	-7119
▁uses	-7120
astrop	-7121
formed	-7122
▁2010.	-7123
▁Angel	-7124
▁Audio	-7125
▁Buddh	-7126
▁Cross	-7127
▁Daddy	-7128
▁James	-7129
▁Kevin	-7130
▁Looks	-7131
▁Marty	-7132
▁Place	-7133
▁Wikip	-7134
▁accur	-7135
▁aside	-7136
▁elder	-7137
▁embar	-7138
▁flash	-7139
▁honey	-7140
▁route	-7141
▁royal	-7142
▁ruled	-7143
▁spect	-7144
▁split	-7145
▁tired	-7146
▁truck	-7147
▁twice	-7148
▁types	-7149
▁usual	-7150
▁weren	-7151
cellent	-7152
vention	-7153
▁Anyway	-7154
▁Jewish	-7155
▁Nepali	-7156
▁agenda	-7157
▁cancel	-7158
▁determ	-7159
▁easier	-7160
▁guided	-7161
▁myster	-7162
▁output	-7163
▁powers	-7164
▁slight	-7165
▁tragic	-7166
▁vulner	-7167
American	-7168
parently	-7169
▁Against	-7170
▁Ibrahim	-7171
▁Loading	-7172
▁Service	-7173
▁collaps	-7174
▁council	-7175
▁defined	-7176
▁episode	-7177
▁printed	-7178
▁replied	-7179
▁succeed	-7180
▁variety	-7181
▁writers	-7182
▁Calendar	-7183
▁Merciful	-7184
▁Software	-7185
▁Tomorrow	-7186
▁blocking	-7187
▁civilian	-7188
▁dictator	-7189
▁distance	-7190
▁featured	-7191
▁intended	-7192
▁prosecut	-7193
▁register	-7194
▁rejected	-7195
▁relative	-7196
▁servants	-7197
▁teachers	-7198
▁Political	-7199
▁addresses	-7200
▁anonymous	-7201
▁connected	-7202
▁creatures	-7203
▁hospitals	-7204
▁listening	-7205
▁presented	-7206
▁sacrifice	-7207
▁seriously	-7208
▁targeting	-7209
▁correspond	-7210
▁discussing	-7211
▁homosexual	-7212
▁registered	-7213
▁unexpected	-7214
▁institution	-7215
▁applications	-7216
02	-7217
7.	-7218
90	-7219
Ap	-7220
LE	-7221
TS	-7222
mo	-7223
؟؟	-7224
كر	-7225
كن	-7226
▁خ	-7227
erg	-7228
hal	-7229
ham	-7230
iga	-7231
isa	-7232
pat	-7233
rey	-7234
tit	-7235
▁31	-7236
▁Hu	-7237
▁Ms	-7238
▁Om	-7239
▁PR	-7240
▁Sn	-7241
..."	-7242
Blog	-7243
Iran	-7244
They	-7245
alan	-7246
icks	-7247
obby	-7248
olen	-7249
ulla	-7250
uous	-7251
▁22,	-7252
▁Cut	-7253
▁Fam	-7254
▁Gun	-7255
▁Hug	-7256
▁Mrs	-7257
▁Nay	-7258
▁Six	-7259
▁Und	-7260
▁bat	-7261
▁gar	-7262
▁gay	-7263
abric	-7264
adise	-7265
adium	-7266
asant	-7267
eping	-7268
inate	-7269
ntown	-7270
oples	-7271
orney	-7272
ultan	-7273
ville	-7274
▁2005	-7275
▁Bush	-7276
▁Dear	-7277
▁Font	-7278
▁Fred	-7279
▁Hist	-7280
▁Line	-7281
▁Need	-7282
▁Sana	-7283
▁Snow	-7284
▁Talk	-7285
▁Thus	-7286
▁bars	-7287
▁cake	-7288
▁crew	-7289
▁fish	-7290
▁isol	-7291
▁junk	-7292
▁maid	-7293
▁plot	-7294
▁zone	-7295
/2013)	-7296
atures	-7297
ladesh	-7298
makers	-7299
pelled	-7300
urally	-7301
▁Email	-7302
▁Night	-7303
▁Steve	-7304
▁facts	-7305
▁fears	-7306
▁funds	-7307
▁input	-7308
▁marty	-7309
▁pilot	-7310
▁shoes	-7311
▁smile	-7312
▁tough	-7313
▁trait	-7314
clusive	-7315
inating	-7316
ucation	-7317
▁Comple	-7318
▁Edward	-7319
▁Report	-7320
▁Soviet	-7321
▁Unless	-7322
▁advent	-7323
▁advice	-7324
▁annual	-7325
▁bridge	-7326
▁insert	-7327
▁modify	-7328
▁perpet	-7329
▁regard	-7330
▁satisf	-7331
▁summit	-7332
▁survey	-7333
▁suspic	-7334
▁walked	-7335
upported	-7336
▁Instead	-7337
▁closely	-7338
▁comprom	-7339
▁courage	-7340
▁decades	-7341
▁drawing	-7342
▁finding	-7343
▁founder	-7344
▁herself	-7345
▁prepare	-7346
▁reforms	-7347
▁survive	-7348
▁trapped	-7349
▁whoever	-7350
▁Anything	-7351
▁attached	-7352
▁discover	-7353
▁drinking	-7354
▁equality	-7355
▁interrog	-7356
▁Jerusalem	-7357
▁Messenger	-7358
▁advantage	-7359
▁apartment	-7360
▁believers	-7361
▁childhood	-7362
▁daughters	-7363
▁decisions	-7364
▁explosion	-7365
▁filtering	-7366
▁immediate	-7367
▁intellect	-7368
▁offensive	-7369
▁platforms	-7370
▁recognize	-7371
▁satellite	-7372
▁Apparently	-7373
▁Philippine	-7374
▁historical	-7375
▁occupation	-7376
▁originally	-7377
▁recognized	-7378
▁regulations	-7379
▁headquarters	-7380
▁approximately	-7381
4.	-7382
OC	-7383
Ph	-7384
Tr	-7385
UL	-7386
Un	-7387
حد	-7388
رب	-7389
قد	-7390
Con	-7391
Pro	-7392
Why	-7393
abe	-7394
aro	-7395
dep	-7396
idi	-7397
isi	-7398
leg	-7399
lov	-7400
loy	-7401
oto	-7402
oub	-7403
ovs	-7404
rip	-7405
run	-7406
ulk	-7407
▁5,	-7408
▁AL	-7409
▁IT	-7410
▁Na	-7411
▁Ru	-7412
Send	-7413
ados	-7414
ancy	-7415
ardo	-7416
bean	-7417
from	-7418
look	-7419
olly	-7420
rait	-7421
roll	-7422
▁13,	-7423
▁18,	-7424
▁Atl	-7425
▁Top	-7426
▁abd	-7427
▁emp	-7428
▁hyp	-7429
▁inh	-7430
▁sle	-7431
▁بال	-7432
acked	-7433
asphe	-7434
enses	-7435
esome	-7436
gered	-7437
heart	-7438
rease	-7439
▁Card	-7440
▁Cast	-7441
▁Fern	-7442
▁Hall	-7443
▁Hand	-7444
▁Musa	-7445
▁Real	-7446
▁True	-7447
▁Vers	-7448
▁flee	-7449
▁joke	-7450
▁lots	-7451
▁pure	-7452
▁riot	-7453
▁sail	-7454
▁	-7455
e	-7456
t	-7457
a	-7458
o	-7459
i	-7460
n	-7461
s	-7462
r	-7463
h	-7464
l	-7465
d	-7466
u	-7467
c	-7468
m	-7469
g	-7470
y	-7471
f	-7472
p	-7473
.	-7474
w	-7475
b	-7476
,	-7477
v	-7478
k	-7479
I	-7480
'	-7481
T	-7482
A	-7483
S	-7484
-	-7485
M	-7486
C	-7487
?	-7488
W	-7489
H	-7490
B	-7491
P	-7492
:	-7493
D	-7494
N	-7495
!	-7496
0	-7497
"	-7498
E	-7499
Y	-7500
x	-7501
O	-7502
G	-7503
L	-7504
F	-7505
R	-7506
j	-7507
1	-7508
z	-7509
2	-7510
)	-7511
(	-7512
K	-7513
U	-7514
J	-7515
q	-7516
%	-7517
V	-7518
_	-7519
ا	-7520
/	-7521
’	-7522
5	-7523
ل	-7524
3	-7525
@	-7526
#	-7527
4	-7528
9	-7529
ي	-7530
8	-7531
م	-7532
7	-7533
“	-7534
”	-7535
6	-7536
و	-7537
ن	-7538
;	-7539
ت	-7540
ر	-7541
Z	-7542
Q	-7543
ب	-7544
ع	-7545
—	-7546
ه	-7547
د	-7548
[	-7549
ة	-7550
]	-7551
&	-7552
ف	-7553
ك	-7554
س	-7555
X	-7556
ح	-7557
أ	-7558
ق	-7559
–	-7560
‘	-7561
ش	-7562
ج	-7563
é	-7564
$	-7565
ى	-7566
ط	-7567
ص	-7568
♪	-7569
*	-7570
خ	-7571
ذ	-7572
{	-7573
}	-7574
á	-7575
،	-7576
ز	-7577
\	-7578
=	-7579
إ	-7580
ض	-7581
í	-7582
ث	-7583
غ	-7584
ó	-7585
`	-7586
+	-7587
؟	-7588
ء	-7589
~	-7590
ñ	-7591
ئ	-7592
>	-7593
‪	-7594
ظ	-7595
ـ	-7596
<	-7597
‬	-7598
ü	-7599
ć	-7600
ã	-7601
ّ	-7602
ú	-7603
­	-7604
©	-7605
ً	-7606
ؤ	-7607
ç	-7608
ž	-7609
َ	-7610
آ	-7611
Η	-7612
ُ	-7613
ä	-7614
ý	-7615
ā	-7616
è	-7617
ô	-7618
ê	-7619
à	-7620
č	-7621
́	-7622
ö	-7623
×	-7624
ğ	-7625
ស	-7626
Ý	-7627
Ə	-7628
ی	-7629
金	-7630
£	-7631
»	-7632
Á	-7633
þ	-7634
ı	-7635
а	-7636
ក	-7637
ា	-7638
្	-7639
«	-7640
ř	-7641
ş	-7642
Ο	-7643
我	-7644
â	-7645
ē	-7646
ī	-7647
š	-7648
ǒ	-7649
̈	-7650
и	-7651
о	-7652
ِ	-7653
ច	-7654
ញ	-7655
ព	-7656
់	-7657
ṭ	-7658
•	-7659
♥	-7660
姐	-7661
底	-7662
日	-7663
^	-7664
®	-7665
É	-7666
Ö	-7667
å	-7668
ō	-7669
̣	-7670
е	-7671
к	-7672
м	-7673
―	-7674
☺	-7675
♡	-7676
い	-7677
ア	-7678
リ	-7679
ー	-7680
上	-7681
大	-7682
天	-7683
染	-7684
的	-7685
者	-7686
¡	-7687
Ü	-7688
æ	-7689
ë	-7690
î	-7691
ò	-7692
õ	-7693
û	-7694
ÿ	-7695
Ā	-7696
ń	-7697
ő	-7698
Š	-7699
ū	-7700
Ž	-7701
ǎ	-7702
ǐ	-7703
̆	-7704
̥	-7705
̮	-7706
̲	-7707
Α	-7708
Κ	-7709
Λ	-7710
Ρ	-7711
Σ	-7712
Τ	-7713
Υ	-7714
ι	-7715
з	-7716
р	-7717
с	-7718
т	-7719
ч	-7720
ѕ	-7721
ר	-7722
ٌ	-7723
ទ	-7724
ន	-7725
ប	-7726
រ	-7727
ល	-7728
ី	-7729
ៀ	-7730
េ	-7731
ៈ	-7732
ḍ	-7733
′	-7734
€	-7735
し	-7736
な	-7737
み	-7738
り	-7739
゚	-7740
イ	-7741
ダ	-7742
テ	-7743
ト	-7744
ポ	-7745
メ	-7746
ル	-7747
假	-7748
劉	-7749
在	-7750
塔	-7751
字	-7752
寒	-7753
小	-7754
就	-7755
晚	-7756
溫	-7757
珊	-7758
環	-7759
生	-7760
盆	-7761
约	-7762
纽	-7763
蓝	-7764
行	-7765
装	-7766
踊	-7767
軍	-7768
鐵	-7769
韩	-7770
飞	-7771
食	-7772
香	-7773
글	-7774
️	-7775
¿	-7776
Ç	-7777
ï	-7778
ð	-7779
ø	-7780
ă	-7781
Ē	-7782
ę	-7783
ě	-7784
ĩ	-7785
İ	-7786
ĸ	-7787
ł	-7788
ś	-7789
ƫ	-7790
ʼ	-7791
̃	-7792
̊	-7793
̩	-7794
̬	-7795
Δ	-7796
Ι	-7797
α	-7798
А	-7799
Г	-7800
Ж	-7801
З	-7802
Н	-7803
Т	-7804
б	-7805
в	-7806
ж	-7807
л	-7808
н	-7809
п	-7810
у	-7811
א	-7812
ו	-7813
ח	-7814
ט	-7815
י	-7816
ל	-7817
ן	-7818
ס	-7819
פ	-7820
ש	-7821
ת	-7822
؛	-7823
ْ	-7824
ک	-7825
ګ	-7826
।	-7827
ḷ	-7828
ị	-7829
ộ	-7830
„	-7831
‫	-7832
₦	-7833
∀	-7834
■	-7835
△	-7836
★	-7837
☭	-7838
✌	-7839
か	-7840
が	-7841
で	-7842
と	-7843
の	-7844
べ	-7845
ら	-7846
ウ	-7847
エ	-7848
ォ	-7849
キ	-7850
ク	-7851
サ	-7852
ザ	-7853
ズ	-7854
バ	-7855
フ	-7856
マ	-7857
ラ	-7858
レ	-7859
ン	-7860
一	-7861
下	-7862
不	-7863
世	-7864
业	-7865
之	-7866
乡	-7867
书	-7868
争	-7869
云	-7870
仰	-7871
企	-7872
傑	-7873
儿	-7874
充	-7875
先	-7876
兵	-7877
刘	-7878
動	-7879
原	-7880
县	-7881
友	-7882
台	-7883
吃	-7884
合	-7885
和	-7886
哋	-7887
喜	-7888
国	-7889
圳	-7890
基	-7891
子	-7892
宁	-7893
宋	-7894
實	-7895
寬	-7896
山	-7897
崇	-7898
川	-7899
希	-7900
干	-7901
年	-7902
庆	-7903
強	-7904
很	-7905
志	-7906
思	-7907
感	-7908
慕	-7909
手	-7910
打	-7911
报	-7912
新	-7913
是	-7914
晓	-7915
書	-7916
有	-7917
朋	-7918
服	-7919
望	-7920
本	-7921
李	-7922
松	-7923
査	-7924
業	-7925
構	-7926
欢	-7927
歲	-7928
江	-7929
汶	-7930
波	-7931
流	-7932
深	-7933
火	-7934
灯	-7935
烏	-7936
物	-7937
狭	-7938
獎	-7939
球	-7940
界	-7941
看	-7942
祈	-7943
神	-7944
禮	-7945
答	-7946
篮	-7947
籠	-7948
給	-7949
統	-7950
联	-7951
聞	-7952
職	-7953
花	-7954
菓	-7955
藥	-7956
街	-7957
被	-7958
視	-7959
計	-7960
調	-7961
讀	-7962
记	-7963
许	-7964
賃	-7965
财	-7966
起	-7967
跟	-7968
连	-7969
送	-7970
這	-7971
造	-7972
選	-7973
還	-7974
鄉	-7975
野	-7976
闘	-7977
问	-7978
随	-7979
雁	-7980
須	-7981
饭	-7982
鱼	-7983
걸	-7984
궤	-7985
까	-7986
나	-7987
는	-7988
라	-7989
리	-7990
맞	-7991
우	-7992
의	-7993
한	-7994
	-7995
